<pad>	0
</s>	0
<unk>	0
<code>	0
</code>	0
<technical_language>	0
</technical_language>	0
<START>	0
<END>	0
▁	-2.33084
.	-2.95252
(	-3.83074
▁the	-3.86982
,	-3.89
)	-4.42426
▁}	-4.48752
▁to	-4.48891
▁{	-4.50672
▁=	-4.51708
▁a	-4.77756
);	-4.84263
s	-4.89884
:	-4.9009
▁is	-4.95285
▁you	-4.99705
▁(	-5.01624
;	-5.02968
_	-5.08168
▁of	-5.08589
▁@	-5.13167
▁if	-5.19737
'	-5.24655
▁and	-5.26539
▁in	-5.29331
>	-5.29504
▁new	-5.45859
▁for	-5.46418
-	-5.47923
▁this	-5.49997
▁it	-5.5095
▁that	-5.52812
();	-5.5435
<	-5.58888
▁"	-5.61835
▁return	-5.63773
()	-5.66497
▁public	-5.67642
▁be	-5.76147
("	-5.77185
▁your	-5.85198
▁I	-5.93568
▁null	-5.96432
String	-5.9765
param	-5.97791
▁can	-5.98267
▁String	-5.99816
"	-6.0054
/	-6.01973
▁not	-6.02504
t	-6.04103
▁with	-6.09745
▁The	-6.12195
▁<	-6.13375
▁+	-6.15039
get	-6.15165
▁are	-6.20183
▁as	-6.23772
▁an	-6.24609
Exception	-6.24668
▁use	-6.28789
▁class	-6.30596
▁will	-6.30685
▁on	-6.31053
▁void	-6.35211
▁You	-6.40348
▁have	-6.40982
▁or	-6.4101
▁int	-6.41418
▁from	-6.43841
▁method	-6.45072
");	-6.5115
▁i	-6.53161
▁value	-6.55569
().	-6.55759
i	-6.57442
▁static	-6.60682
▁by	-6.61386
▁==	-6.61657
",	-6.63904
[	-6.65387
▁If	-6.73716
▁code	-6.74565
▁final	-6.75034
return	-6.77395
▁which	-6.77413
());	-6.77661
d	-6.80037
▁do	-6.82058
}	-6.82423
▁name	-6.83462
new	-6.83512
▁get	-6.83533
[]	-6.84654
())	-6.85655
int	-6.86618
▁using	-6.86621
▁should	-6.86676
▁need	-6.87707
▁{@	-6.88328
▁e	-6.89057
▁This	-6.89128
▁file	-6.89341
="	-6.89509
▁but	-6.89906
2	-6.89917
out	-6.90022
▁all	-6.91423
▁like	-6.92691
▁object	-6.92841
add	-6.93824
▁-	-6.9756
▁type	-6.98058
▁System	-6.98446
▁else	-6.99357
▁then	-7.01044
▁try	-7.01907
▁private	-7.02154
▁!=	-7.03046
List	-7.05319
▁set	-7.07209
▁one	-7.07237
▁Java	-7.08108
▁at	-7.08329
1	-7.10652
Type	-7.10856
▁so	-7.11662
e	-7.11877
link	-7.12043
▁case	-7.1338
▁data	-7.13877
set	-7.13958
Override	-7.14592
▁would	-7.14606
▁list	-7.15863
class	-7.16202
▁java	-7.16399
println	-7.16522
(),	-7.17697
T	-7.17756
).	-7.1821
▁want	-7.19447
▁result	-7.19638
Name	-7.197
▁when	-7.20156
length	-7.20297
▁only	-7.22232
=	-7.22837
name	-7.23877
m	-7.2404
▁It	-7.27017
a	-7.27061
▁has	-7.2769
n	-7.27794
▁throw	-7.28008
x	-7.30709
id	-7.31482
));	-7.31922
re	-7.33721
▁just	-7.35262
▁there	-7.35638
▁create	-7.35668
▁throws	-7.37367
▁List	-7.38112
public	-7.38992
▁catch	-7.39709
]	-7.40392
▁any	-7.41416
▁true	-7.41823
?	-7.42113
▁In	-7.42566
▁more	-7.42678
▁was	-7.43147
▁add	-7.43186
▁same	-7.43939
▁other	-7.44371
Id	-7.44686
LINK	-7.44742
▁request	-7.4491
▁0;	-7.45379
▁array	-7.45562
this	-7.46252
throws	-7.46653
▁&&	-7.46674
▁A	-7.46793
▁call	-7.47143
▁boolean	-7.4766
▁example	-7.49489
))	-7.49507
▁no	-7.49974
▁key	-7.49996
▁way	-7.50183
Object	-7.51234
▁first	-7.51482
▁m	-7.51697
▁time	-7.5216
▁my	-7.52514
▁what	-7.53102
▁some	-7.53599
▁used	-7.55368
▁false	-7.55838
ing	-7.56385
▁instance	-7.56413
</	-7.57684
▁into	-7.58064
▁could	-7.58196
▁also	-7.58623
▁string	-7.59508
▁Object	-7.60452
Map	-7.60875
Class	-7.63899
▁while	-7.64523
code	-7.64585
c	-7.64631
▁So	-7.64796
▁0	-7.6612
")	-7.66885
▁import	-7.67091
▁problem	-7.68237
▁given	-7.69461
▁don	-7.70635
▁out	-7.71045
Request	-7.71608
final	-7.72041
append	-7.72847
value	-7.7307
Value	-7.73144
▁values	-7.73335
java	-7.73804
▁does	-7.74331
4	-7.74461
j	-7.74583
▁because	-7.74999
▁here	-7.75022
Context	-7.75227
▁number	-7.75247
A	-7.75289
ed	-7.75342
▁make	-7.76217
▁</	-7.7644
_0>	-7.76475
equals	-7.76652
is	-7.77631
▁input	-7.77925
Data	-7.78458
▁default	-7.79136
File	-7.79322
▁work	-7.79853
▁For	-7.79871
▁line	-7.80118
▁may	-7.80828
#	-7.81083
g	-7.81328
toString	-7.814
put	-7.82427
{	-7.83247
▁run	-7.84232
▁user	-7.84414
b	-7.85122
▁ArrayList	-7.85995
▁each	-7.86359
\	-7.8637
▁*	-7.86684
size	-7.86828
▁path	-7.87437
▁extends	-7.87813
▁error	-7.88043
▁start	-7.88255
▁thread	-7.88298
▁than	-7.8852
▁read	-7.88657
▁check	-7.88779
▁main	-7.88785
▁double	-7.8912
▁long	-7.89701
▁current	-7.91551
D	-7.92028
S	-7.92099
▁instead	-7.92648
++)	-7.93253
▁application	-7.93304
▁two	-7.93713
in	-7.94133
▁where	-7.94441
3	-7.9472
▁c	-7.95354
▁field	-7.95583
true	-7.95798
▁map	-7.97005
▁->	-7.97203
r	-7.9734
▁android	-7.97435
▁about	-7.97853
f	-7.97933
▁response	-7.98041
▁something	-7.98327
▁x	-7.98331
▁context	-7.98514
▁index	-7.98894
▁them	-7.98968
▁b	-7.99152
▁see	-7.99201
▁version	-7.9921
▁change	-7.99259
▁server	-7.99498
▁its	-7.99841
To	-7.99894
▁message	-7.99981
R	-8.00406
▁element	-8.00474
▁test	-8.00587
▁...	-8.0071
p	-8.00907
y	-8.01051
▁resource	-8.01167
@	-8.02252
▁following	-8.0247
▁how	-8.02641
▁up	-8.03129
▁end	-8.03694
▁methods	-8.04762
xml	-8.05014
▁1	-8.05828
▁found	-8.05964
▁p	-8.06094
▁IOException	-8.06109
▁find	-8.06802
),	-8.07007
▁they	-8.07168
Key	-8.07801
▁different	-8.07905
▁before	-8.08176
▁byte	-8.08412
▁after	-8.08732
▁must	-8.10446
▁||	-8.10645
▁variable	-8.10945
▁text	-8.11039
▁source	-8.11236
Node	-8.11617
▁0)	-8.11675
see	-8.11996
▁parameter	-8.12458
key	-8.1272
▁id	-8.12736
Path	-8.12739
null	-8.13272
▁we	-8.13453
▁specified	-8.13569
▁exception	-8.13735
util	-8.14326
I	-8.14898
▁look	-8.14993
ID	-8.15114
Integer	-8.15858
Factory	-8.15881
E	-8.16518
1.	-8.1658
Service	-8.17089
";	-8.17499
or	-8.17802
▁doesn	-8.17846
X	-8.17876
Info	-8.17908
C	-8.18044
▁break	-8.18181
){	-8.18203
▁output	-8.18348
▁write	-8.18366
▁File	-8.18461
file	-8.18502
▁args	-8.18659
▁classes	-8.18758
▁project	-8.19744
▁query	-8.20055
▁client	-8.21468
▁API	-8.21751
▁Integer	-8.21953
v	-8.22633
▁might	-8.23088
▁(!	-8.23246
com	-8.2336
▁There	-8.23728
▁super	-8.23793
▁solution	-8.23883
▁reference	-8.23901
▁size	-8.24038
▁j	-8.24129
▁protected	-8.24369
create	-8.24543
data	-8.24804
▁order	-8.25026
B	-8.25338
▁Map	-8.25414
type	-8.2559
▁function	-8.26245
▁answer	-8.26521
Builder	-8.26733
▁?	-8.26777
to	-8.26838
▁objects	-8.26853
▁org	-8.26869
▁node	-8.27338
▁loop	-8.27704
▁interface	-8.27744
▁think	-8.27832
Index	-8.27839
ll	-8.28085
▁As	-8.28428
...	-8.29396
▁com	-8.30098
Set	-8.30701
▁called	-8.30798
▁property	-8.31464
▁parameters	-8.31793
▁access	-8.32297
Configuration	-8.32344
▁service	-8.32488
▁And	-8.32523
er	-8.33225
▁files	-8.33478
user	-8.33698
▁table	-8.34079
▁know	-8.3426
getName	-8.34319
jar	-8.34643
Manager	-8.35014
▁implementation	-8.35668
Element	-8.35939
Config	-8.36121
▁To	-8.36527
▁sure	-8.36867
▁constructor	-8.36881
▁2	-8.3716
list	-8.37458
▁update	-8.37666
next	-8.37697
▁But	-8.38397
>>	-8.38417
Array	-8.38437
!	-8.38915
▁question	-8.39411
▁such	-8.39819
View	-8.3982
▁log	-8.40222
▁second	-8.4033
▁n	-8.40851
▁another	-8.41609
▁C	-8.41816
▁state	-8.41938
▁stream	-8.42176
Entry	-8.42225
▁already	-8.42332
▁Then	-8.42442
layout	-8.42774
Response	-8.42811
▁That	-8.43074
▁Use	-8.43308
o	-8.44405
▁When	-8.44786
if	-8.4505
▁T	-8.45089
Listener	-8.45468
lang	-8.45565
▁right	-8.45583
▁instanceof	-8.45755
▁cannot	-8.45776
▁both	-8.4579
Result	-8.45884
▁these	-8.46235
▁Here	-8.46507
▁Class	-8.46913
▁#	-8.47062
▁Returns	-8.47097
version	-8.47511
▁database	-8.47536
▁connection	-8.47878
▁point	-8.47947
▁|	-8.48072
▁Your	-8.48086
▁been	-8.48122
Date	-8.48636
▁image	-8.48647
▁configuration	-8.48967
▁created	-8.49095
▁last	-8.49266
2.	-8.49401
▁y	-8.49547
▁elements	-8.49559
▁IllegalArgument	-8.49888
Handler	-8.50059
▁process	-8.50525
▁event	-8.50621
text	-8.50804
▁possible	-8.51109
▁information	-8.51406
▁view	-8.51555
];	-8.51654
▁without	-8.52062
▁since	-8.5254
ve	-8.52807
org	-8.52917
Field	-8.53236
Test	-8.53248
Message	-8.53252
able	-8.5331
▁target	-8.5336
map	-8.54014
▁Spring	-8.54025
▁issue	-8.54655
▁even	-8.54843
State	-8.55319
▁returns	-8.55584
▁between	-8.5574
▁count	-8.56166
▁content	-8.565
▁0,	-8.56757
▁means	-8.56765
▁next	-8.56782
▁being	-8.56983
▁entry	-8.57006
test	-8.57125
1,	-8.57503
Size	-8.5779
*	-8.57803
0	-8.57962
▁build	-8.58141
path	-8.58161
▁remove	-8.58195
▁inside	-8.5829
Count	-8.5888
▁page	-8.58926
▁works	-8.59092
▁operation	-8.59309
▁properties	-8.5933
▁returned	-8.59677
▁parent	-8.59738
▁single	-8.6031
▁Note	-8.6038
+	-8.60683
close	-8.60786
▁date	-8.6081
Method	-8.61438
▁part	-8.6155
index	-8.61771
my	-8.61927
▁v	-8.62024
▁me	-8.62042
▁own	-8.62118
▁app	-8.62156
▁item	-8.622
">	-8.622
▁really	-8.62299
▁very	-8.62309
start	-8.62502
otocolMarshaller	-8.63035
▁model	-8.63161
In	-8.63163
▁row	-8.63437
Event	-8.63615
▁session	-8.63962
▁now	-8.64103
▁directory	-8.64183
▁actually	-8.64689
Resource	-8.64721
▁format	-8.64931
request	-8.65054
▁always	-8.65125
System	-8.65262
Item	-8.6539
input	-8.6562
groupId	-8.6566
format	-8.66073
Time	-8.66207
▁still	-8.66705
▁memory	-8.67048
▁probably	-8.67048
▁command	-8.67049
Bean	-8.67122
▁Set	-8.67128
▁system	-8.67148
Client	-8.67187
stream	-8.67311
▁above	-8.67398
build	-8.67844
▁well	-8.68084
Text	-8.68097
▁simple	-8.68213
▁%	-8.68302
▁better	-8.68416
Filter	-8.69666
"));	-8.69751
Y	-8.69914
▁My	-8.70036
▁Also	-8.7037
▁str	-8.70391
▁good	-8.70474
▁through	-8.70688
▁Thread	-8.70752
ly	-8.70969
false	-8.71045
api	-8.71215
▁Try	-8.71349
▁either	-8.714
L	-8.72141
write	-8.72302
K	-8.72377
▁added	-8.7252
Collection	-8.72627
▁f	-8.72635
▁available	-8.72636
▁match	-8.7297
▁why	-8.73098
▁pr	-8.73099
▁pass	-8.73283
k	-8.73294
▁javax	-8.73481
log	-8.73612
>();	-8.7369
▁argument	-8.7384
▁put	-8.7385
▁B	-8.7385
and	-8.74086
▁buffer	-8.74202
V	-8.74386
▁group	-8.74607
▁frame	-8.74686
▁URL	-8.74713
▁below	-8.74714
for	-8.7481
▁over	-8.74866
Group	-8.75082
getValue	-8.75135
h	-8.75253
User	-8.75278
For	-8.75388
▁1;	-8.75618
▁bytes	-8.75643
Table	-8.75926
▁&	-8.75995
▁column	-8.76149
▁url	-8.76294
▁those	-8.76299
▁character	-8.763
▁package	-8.7639
▁done	-8.76718
Number	-8.76812
▁See	-8.76831
▁task	-8.76856
▁pattern	-8.76933
▁fields	-8.77133
▁handle	-8.77137
Model	-8.77475
artifactId	-8.77608
▁implements	-8.77856
▁empty	-8.77884
▁local	-8.78085
▁specific	-8.78185
import	-8.782
▁library	-8.78281
time	-8.78355
▁contains	-8.78426
▁root	-8.78556
▁+=	-8.78611
▁non	-8.78694
▁StringBuilder	-8.78903
io	-8.79294
▁doing	-8.79391
▁option	-8.79646
of	-8.79928
context	-8.80023
Property	-8.80161
▁every	-8.80287
▁JSON	-8.80295
Query	-8.80311
▁take	-8.80352
▁running	-8.80451
▁max	-8.80638
▁block	-8.80905
▁most	-8.81193
F	-8.81564
▁entity	-8.8182
▁attribute	-8.81823
From	-8.81842
Error	-8.81929
▁sb	-8.82131
Entity	-8.82236
▁go	-8.82397
l	-8.82465
▁multiple	-8.82709
▁simply	-8.82711
▁HashMap	-8.82726
url	-8.82906
▁statement	-8.82993
▁However	-8.83232
line	-8.83715
▁much	-8.83791
▁correct	-8.83923
▁types	-8.83945
remove	-8.8411
▁builder	-8.84267
▁within	-8.84834
▁implement	-8.84947
▁annotation	-8.85077
▁custom	-8.8525
debug	-8.85353
▁finally	-8.85357
item	-8.85445
▁component	-8.85588
▁web	-8.85674
google	-8.86007
u	-8.86121
with	-8.86122
▁able	-8.86123
▁3	-8.86193
on	-8.86307
read	-8.8634
▁});	-8.86571
Utils	-8.86688
substring	-8.86772
"))	-8.86944
▁required	-8.86994
result	-8.87271
▁store	-8.87401
▁many	-8.87948
▁char	-8.88118
Stream	-8.88123
▁button	-8.88232
Connection	-8.88474
<>();	-8.8872
▁copy	-8.88957
▁What	-8.88958
<?	-8.89094
▁help	-8.89116
▁filter	-8.89212
marshall	-8.89273
8	-8.8934
Status	-8.89347
▁calling	-8.8935
▁program	-8.89388
▁their	-8.89409
By	-8.89462
▁1)	-8.89589
error	-8.8961
▁collection	-8.89634
▁position	-8.89737
▁trying	-8.89814
5	-8.9046
as	-8.90817
▁ex	-8.91015
▁/>	-8.91123
▁expression	-8.9132
▁based	-8.91492
▁back	-8.91753
▁options	-8.91891
print	-8.9204
isEmpty	-8.92185
▁results	-8.92334
&	-8.92435
▁>=	-8.92686
w	-8.92901
z	-8.93459
▁load	-8.93552
▁level	-8.93641
▁bean	-8.93737
▁search	-8.94047
N	-8.94086
P	-8.94152
▁uses	-8.94558
▁documentation	-8.9476
▁synchronized	-8.9477
").	-8.94792
▁had	-8.94807
IOException	-8.95126
▁XML	-8.95174
▁!	-8.95489
nabled	-8.95561
▁container	-8.95792
▁etc	-8.96079
Properties	-8.96182
▁o	-8.96207
Provider	-8.96229
InputStream	-8.96238
▁valid	-8.96341
▁obj	-8.96388
▁document	-8.96535
J	-8.96789
one	-8.96905
▁reason	-8.97356
NAME	-8.97418
▁r	-8.97573
▁folder	-8.97626
▁print	-8.9782
▁base	-8.98106
▁bit	-8.98195
\\	-8.98271
Impl	-8.98378
▁never	-8.984
<?>	-8.9845
byte	-8.98606
▁passed	-8.98651
contains	-8.98651
▁thrown	-8.98814
▁action	-8.9894
With	-8.98947
info	-8.99138
▁config	-8.99339
filter	-8.99644
str	-8.99689
▁support	-8.9976
▁calls	-8.99902
Button	-8.99938
▁too	-9.00065
▁threads	-9.00147
▁logger	-9.00534
▁old	-9.00645
▁names	-9.0073
▁parse	-9.00733
string	-9.00828
▁thing	-9.0102
▁variables	-9.01043
▁original	-9.01219
▁cache	-9.01637
Code	-9.01773
▁existing	-9.01803
▁directly	-9.01869
Image	-9.02085
Of	-9.021
parent	-9.02119
▁float	-9.02253
▁Get	-9.02316
▁Create	-9.02395
▁things	-9.02472
BINDING	-9.0264
split	-9.02754
▁seems	-9.02833
▁creating	-9.02936
▁provided	-9.03098
▁whether	-9.03142
property	-9.03151
▁working	-9.03154
++;	-9.03185
▁switch	-9.03227
getClass	-9.03437
the	-9.03542
Cache	-9.03551
client	-9.03637
private	-9.03786
▁defined	-9.03855
And	-9.04176
▁characters	-9.0421
▁itself	-9.04566
▁approach	-9.04892
▁<=	-9.04918
▁convert	-9.04978
▁wrong	-9.0507
M	-9.05169
es	-9.05202
▁Now	-9.05232
getMessage	-9.05311
Task	-9.05396
android	-9.05521
apache	-9.05587
▁location	-9.05609
Action	-9.05749
▁sub	-9.05816
dependency	-9.05926
▁JVM	-9.06281
Url	-9.06384
▁once	-9.06541
▁best	-9.06623
()));	-9.06966
▁Date	-9.07033
▁via	-9.07059
valueOf	-9.07313
▁were	-9.07417
▁jar	-9.07504
▁give	-9.07588
Page	-9.07592
Color	-9.07594
▁-->	-9.07615
▁compiler	-9.07641
|	-9.07841
Content	-9.07909
▁child	-9.0793
▁open	-9.08064
Instance	-9.08603
▁save	-9.08759
▁adding	-9.08954
▁execute	-9.09149
▁length	-9.09191
▁Android	-9.09197
▁actual	-9.09471
▁needs	-9.09828
▁send	-9.09856
▁listener	-9.0999
doc	-9.10002
tc	-9.1013
Parameter	-9.10172
▁provide	-9.10273
Level	-9.10562
URL	-9.10705
▁form	-9.1089
6	-9.10903
Source	-9.1106
Component	-9.11063
it	-9.11244
▁job	-9.11481
▁won	-9.11691
▁g	-9.11846
▁offset	-9.11899
parse	-9.12048
▁tag	-9.12049
Options	-9.12091
%	-9.12284
▁Math	-9.12716
max	-9.12778
▁again	-9.12868
from	-9.12924
▁left	-9.13468
▁items	-9.13515
▁include	-9.13574
getInstance	-9.13666
▁Since	-9.13733
▁isn	-9.14024
▁going	-9.14044
TYPE	-9.1411
entry	-9.14131
Token	-9.14267
Length	-9.14338
long	-9.14373
▁resources	-9.14612
▁token	-9.1463
O	-9.14638
content	-9.14692
▁keep	-9.14812
array	-9.14897
event	-9.14928
▁num	-9.15495
properties	-9.15552
(0,	-9.15818
::	-9.16147
▁post	-9.16181
▁compile	-9.16393
Util	-9.16408
▁ID	-9.16502
▁looks	-9.1655
Version	-9.16681
printStackTrace	-9.16736
▁changes	-9.16758
▁header	-9.17872
▁override	-9.18048
width	-9.18106
Panel	-9.18308
▁say	-9.18353
"/>	-9.18759
OutputStream	-9.18882
▁address	-9.19092
G	-9.19794
config	-9.19866
Application	-9.19879
2)	-9.19881
main	-9.20166
▁specify	-9.20192
group	-9.20328
▁per	-9.20436
Writer	-9.20985
node	-9.21022
▁delete	-9.21107
▁stack	-9.21239
▁rather	-9.21481
plugin	-9.22252
▁Eclipse	-9.22333
}.	-9.2237
▁k	-9.2246
▁encoding	-9.22527
▁--	-9.22602
▁Just	-9.2298
app	-9.23268
":	-9.23276
▁J	-9.23299
Thread	-9.23315
▁range	-9.23417
Function	-9.23452
message	-9.23495
▁arguments	-9.2355
Input	-9.23588
servlet	-9.23809
64	-9.23853
▁least	-9.23922
▁did	-9.23949
Column	-9.23974
▁Add	-9.24
Attribute	-9.24026
▁though	-9.24114
▁needed	-9.24276
▁until	-9.24373
source	-9.24501
Calendar	-9.24527
getString	-9.24584
▁rule	-9.24646
Session	-9.24734
table	-9.24865
▁similar	-9.24993
▁Scanner	-9.25292
json	-9.25387
_1>	-9.25435
Row	-9.25577
▁otherwise	-9.25697
Buffer	-9.25706
Long	-9.25775
field	-9.25848
▁E	-9.25864
▁An	-9.25901
setText	-9.25917
Line	-9.25973
▁<!--	-9.25996
▁details	-9.26079
▁expected	-9.26158
▁changed	-9.26172
Expression	-9.26181
▁allow	-9.26191
▁looking	-9.26435
current	-9.26752
Point	-9.26854
▁activity	-9.26868
].	-9.26893
▁side	-9.26914
▁handler	-9.26961
▁anything	-9.27048
Start	-9.27048
target	-9.27116
▁setting	-9.27131
Java	-9.2726
The	-9.27324
end	-9.27339
Mode	-9.27499
▁8	-9.27549
▁writer	-9.27573
count	-9.27695
RuntimeException	-9.27867
▁json	-9.27906
▁Or	-9.28079
()))	-9.28138
▁place	-9.28367
Adapter	-9.28545
▁l	-9.28621
▁val	-9.28632
2,	-9.28863
▁V	-9.28868
▁replace	-9.28902
H	-9.2906
▁define	-9.29193
▁keys	-9.29407
date	-9.29486
▁cause	-9.29594
▁numbers	-9.29673
Server	-9.29826
resource	-9.29832
▁am	-9.29862
double	-9.29868
▁re	-9.29984
▁temp	-9.30079
▁status	-9.30293
▁fail	-9.30308
▁getting	-9.304
Iterator	-9.30444
Container	-9.3047
hasNext	-9.30484
▁queue	-9.3059
Pattern	-9.30684
▁generate	-9.30924
Activity	-9.3114
▁Long	-9.31158
▁close	-9.31334
▁full	-9.31446
method	-9.31614
▁lines	-9.31666
▁instances	-9.31848
▁password	-9.31851
Operation	-9.3187
▁lock	-9.31909
Document	-9.32086
▁R	-9.32276
▁under	-9.32315
Base	-9.3233
Reader	-9.32404
height	-9.32438
Values	-9.32443
▁runtime	-9.32451
7	-9.32482
find	-9.3264
service	-9.32644
Inner	-9.32706
swing	-9.3278
▁contain	-9.32789
charAt	-9.3288
▁containing	-9.32962
which	-9.3303
▁reader	-9.33217
▁params	-9.33341
▁performance	-9.33756
http	-9.3378
▁Runnable	-9.33928
▁Test	-9.33945
=0;	-9.33967
On	-9.33997
▁tc	-9.34019
▁10	-9.34069
▁show	-9.34111
▁language	-9.34176
▁factory	-9.34239
▁transaction	-9.34278
▁having	-9.34302
▁fine	-9.34445
▁driver	-9.34474
update	-9.34587
▁total	-9.34806
▁layout	-9.34816
▁exactly	-9.34863
▁space	-9.34872
▁select	-9.34875
▁dependency	-9.35018
▁avoid	-9.35023
▁How	-9.35199
▁X	-9.3523
▁classpath	-9.35448
▁makes	-9.3545
▁First	-9.35563
▁One	-9.35643
(){	-9.35748
ArrayList	-9.35817
▁fix	-9.35978
bean	-9.36005
min	-9.36141
Header	-9.36158
▁top	-9.36312
Double	-9.3633
▁marshall	-9.36824
awt	-9.36886
No	-9.37037
▁After	-9.37037
Location	-9.3717
▁port	-9.37174
no	-9.3719
▁reading	-9.37227
Helper	-9.3736
al	-9.3742
▁standard	-9.37484
▁Double	-9.37593
▁strings	-9.37657
txt	-9.37913
▁around	-9.38097
▁JPanel	-9.38166
▁lot	-9.38312
▁5	-9.38411
▁No	-9.38465
getKey	-9.38524
response	-9.3862
▁idea	-9.38631
▁suggest	-9.38919
values	-9.38942
▁S	-9.39028
▁display	-9.39036
▁body	-9.39072
▁sum	-9.39192
▁un	-9.39243
2);	-9.394
▁info	-9.39461
▁previous	-9.39462
Constants	-9.39515
▁dependencies	-9.39539
▁integer	-9.39665
▁logic	-9.39695
Bytes	-9.39745
▁/*	-9.39819
▁src	-9.39863
▁separate	-9.39888
▁JDK	-9.39972
▁course	-9.40034
row	-9.40041
sql	-9.401
lib	-9.40217
UTF	-9.40274
▁compare	-9.40301
▁continue	-9.40519
▁exist	-9.40534
▁scope	-9.40559
▁User	-9.40579
Tag	-9.40598
W	-9.4073
Async	-9.40798
iterator	-9.40858
++	-9.40901
▁word	-9.40949
select	-9.41123
▁understand	-9.41214
▁validation	-9.41343
▁HTTP	-9.41522
▁Log	-9.41668
▁plugin	-9.4175
▁callback	-9.421
][	-9.42115
__	-9.4212
▁control	-9.4219
▁times	-9.42201
▁Arrays	-9.42235
state	-9.42277
▁tree	-9.42493
getText	-9.42605
server	-9.42833
Position	-9.42962
My	-9.43048
▁attributes	-9.43264
▁Instead	-9.43268
▁sort	-9.43313
VALUE	-9.43441
core	-9.43509
▁min	-9.43522
▁got	-9.43542
package	-9.43881
▁allows	-9.43995
image	-9.44063
src	-9.44384
▁condition	-9.44466
▁nothing	-9.44724
▁abstract	-9.44744
▁structure	-9.44748
▁O	-9.44788
object	-9.45031
▁regex	-9.4512
foo	-9.45207
view	-9.45359
body	-9.45462
▁msg	-9.4555
▁SQL	-9.45596
▁comment	-9.45644
query	-9.45668
Reference	-9.45766
▁pool	-9.4605
▁down	-9.46059
▁Check	-9.46192
▁JFrame	-9.46507
▁generic	-9.46526
▁From	-9.46585
configuration	-9.46675
▁res	-9.46714
▁Collections	-9.46873
▁Boolean	-9.47006
▁inner	-9.47112
▁helps	-9.47222
(@	-9.47292
▁ret	-9.47351
","	-9.47488
▁4	-9.47627
▁mapping	-9.47638
obj	-9.47735
getId	-9.47907
▁module	-9.48518
root	-9.48519
▁width	-9.486
▁account	-9.48627
)}	-9.48669
▁difference	-9.48884
▁fact	-9.48944
Metadata	-9.48955
▁automatically	-9.49003
inheritDoc	-9.49048
Record	-9.49073
▁1,	-9.49125
Rule	-9.49195
Log	-9.49297
▁made	-9.49355
Str	-9.49367
▁execution	-9.49429
▁Pattern	-9.49434
▁feature	-9.49504
Offset	-9.49536
▁Collection	-9.49637
indexOf	-9.4968
▁label	-9.49719
▁spring	-9.4972
▁less	-9.49753
URI	-9.49815
▁Maven	-9.50025
Parser	-9.50027
▁color	-9.50062
Update	-9.50103
▁panel	-9.50109
Template	-9.50161
Parameters	-9.50177
▁stored	-9.50258
▁particular	-9.50335
▁mean	-9.50387
first	-9.50453
num	-9.50528
Label	-9.50562
▁environment	-9.50575
▁window	-9.50648
<>(	-9.5078
▁cases	-9.5078
Tree	-9.50793
▁hash	-9.50842
Controller	-9.50902
▁written	-9.50968
▁View	-9.50983
Invalid	-9.51032
▁Node	-9.51074
(0);	-9.51129
9	-9.51196
Definition	-9.5124
▁consider	-9.51244
Target	-9.51253
tt	-9.51285
▁step	-9.51443
collect	-9.51705
project	-9.51762
application	-9.51769
▁record	-9.51873
▁Using	-9.51902
▁mode	-9.51921
▁short	-9.51945
Or	-9.52163
execute	-9.52218
▁definition	-9.52306
resources	-9.52383
▁off	-9.52514
nextInt	-9.52565
▁components	-9.52633
▁operations	-9.52734
KEY	-9.52749
Address	-9.53039
▁during	-9.53084
▁random	-9.53115
▁var	-9.53538
▁click	-9.53592
▁equal	-9.53806
Ref	-9.53943
▁generated	-9.54255
▁fixed	-9.54269
element	-9.54475
▁common	-9.54496
[0]	-9.5451
your	-9.54734
▁easy	-9.54824
▁Example	-9.54855
▁recommend	-9.54879
▁Hibernate	-9.5491
▁takes	-9.54989
▁matching	-9.55122
▁kind	-9.55307
▁note	-9.55402
char	-9.55405
▁LOG	-9.55421
matcher	-9.55476
web	-9.55536
▁wait	-9.55546
1);	-9.55666
▁additional	-9.55756
▁height	-9.55798
html	-9.55808
▁correctly	-9.55912
▁let	-9.55925
▁matches	-9.56108
▁clear	-9.56114
▁move	-9.56251
▁real	-9.56452
▁exists	-9.56485
▁h	-9.56492
not	-9.56529
parseInt	-9.56538
buffer	-9.56651
▁Observable	-9.56699
▁whole	-9.56707
val	-9.56774
▁1);	-9.568
▁unit	-9.56804
▁solve	-9.56894
Job	-9.56933
Format	-9.56959
isAnyTracingE	-9.56994
▁enough	-9.57037
Repository	-9.57391
net	-9.57541
▁On	-9.57616
▁apply	-9.57775
non	-9.57778
▁sequence	-9.57892
position	-9.57922
show	-9.57923
Get	-9.57935
▁everything	-9.58089
▁executed	-9.58235
run	-9.58388
▁associated	-9.58558
▁doc	-9.58661
▁declared	-9.58694
▁Yes	-9.58723
▁writing	-9.58779
rs	-9.58823
▁internal	-9.58921
since	-9.58975
load	-9.59083
springframework	-9.59146
▁perform	-9.59188
Int	-9.59423
▁errors	-9.59434
getProperty	-9.59551
Range	-9.5964
TraceComponent	-9.59661
Bundle	-9.59887
ch	-9.59932
Wrapper	-9.59934
▁complete	-9.60031
▁words	-9.60105
▁db	-9.60284
▁init	-9.60354
▁useful	-9.60419
▁future	-9.60445
▁http	-9.60497
has	-9.60509
▁general	-9.60616
▁stop	-9.60643
Dir	-9.60697
replace	-9.61047
All	-9.61232
q	-9.61298
Names	-9.61303
form	-9.61308
Param	-9.61421
▁pretty	-9.61431
▁BufferedReader	-9.61603
action	-9.61685
(...)	-9.61843
▁Creates	-9.61966
▁arg	-9.61971
Types	-9.61972
▁removed	-9.62004
div	-9.62051
U	-9.62203
compile	-9.62339
▁template	-9.62364
▁behavior	-9.62457
model	-9.62473
▁Intent	-9.62576
Order	-9.62668
▁Hope	-9.62691
▁begin	-9.62773
Channel	-9.62831
▁configure	-9.62851
db	-9.62875
some	-9.63076
exit	-9.63139
▁points	-9.63154
▁likely	-9.63189
▁amount	-9.63193
Annotation	-9.63443
▁"+	-9.63604
asList	-9.63616
▁enum	-9.63681
▁supported	-9.6374
trim	-9.63789
▁7	-9.63811
Store	-9.63892
▁few	-9.63943
32	-9.64077
End	-9.64183
▁len	-9.6426
SimpleDateFormat	-9.64262
Queue	-9.64292
▁guess	-9.64346
▁We	-9.64456
▁problems	-9.64478
default	-9.64498
at	-9.64514
▁InputStream	-9.64568
▁dialog	-9.64572
://	-9.64602
Interface	-9.64649
Transaction	-9.64683
▁happens	-9.64772
▁N	-9.64813
th	-9.6486
getType	-9.65013
do	-9.65015
▁messages	-9.65025
▁All	-9.65051
▁SdkClient	-9.65152
SuppressWarnings	-9.65162
Settings	-9.6519
▁appropriate	-9.65206
number	-9.65315
▁necessary	-9.6532
▁servlet	-9.65374
▁exceptions	-9.65605
Callback	-9.65685
▁split	-9.65715
▁w	-9.65851
▁operator	-9.65859
sort	-9.65879
▁section	-9.6589
Attributes	-9.66002
▁clazz	-9.66005
Intent	-9.66142
▁Optional	-9.66265
▁EDIT	-9.66328
▁initialize	-9.66369
▁limit	-9.6638
▁tests	-9.66411
▁zero	-9.66435
▁gets	-9.66461
▁prefix	-9.66522
▁arr	-9.66572
Access	-9.66681
▁insert	-9.66867
▁foo	-9.66894
▁parser	-9.66922
▁iterator	-9.67014
▁depends	-9.67037
Output	-9.67102
▁retrieve	-9.67105
Width	-9.67169
▁script	-9.67179
▁With	-9.67349
Link	-9.67416
▁schema	-9.67444
▁references	-9.67459
▁maven	-9.67531
▁style	-9.67534
▁network	-9.67543
Arrays	-9.67613
10	-9.67665
clear	-9.67737
▁mentioned	-9.67745
init	-9.67859
▁libraries	-9.6793
▁Iterator	-9.68115
▁UI	-9.6842
check	-9.68493
▁missing	-9.6861
Policy	-9.68676
▁Please	-9.68786
args	-9.68796
▁later	-9.6896
▁however	-9.6896
Package	-9.69003
▁entries	-9.69109
▁buf	-9.69226
▁didn	-9.69283
="<	-9.69324
pos	-9.69333
▁settings	-9.69389
▁declare	-9.69501
▁algorithm	-9.69618
▁updated	-9.69623
▁said	-9.69642
Uri	-9.69738
]);	-9.6992
▁Method	-9.6999
▁present	-9.69999
▁modify	-9.70013
▁yourself	-9.70042
▁member	-9.7014
▁cast	-9.70187
("/	-9.70209
12	-9.70407
Descriptor	-9.70615
▁intent	-9.70892
▁Application	-9.71057
Registry	-9.7107
▁named	-9.71102
bin	-9.7112
SI	-9.71281
▁matrix	-9.71364
bar	-9.71431
▁bug	-9.71561
▁loaded	-9.71604
▁nodes	-9.71616
▁starting	-9.71711
▁proxy	-9.71723
Math	-9.71804
dd	-9.71834
replaceAll	-9.7186
▁description	-9.71866
▁Default	-9.71972
color	-9.72032
▁making	-9.72251
Pos	-9.72257
▁ref	-9.72265
base	-9.72287
child	-9.72299
password	-9.7232
Command	-9.72337
▁versions	-9.72371
level	-9.72471
match	-9.72551
▁\	-9.72575
New	-9.72669
▁fails	-9.727
delete	-9.72888
all	-9.72896
▁explicitly	-9.72994
save	-9.73134
Boolean	-9.73165
Num	-9.73236
▁failed	-9.73275
▁HTML	-9.73421
▁users	-9.73431
addAll	-9.73465
▁sample	-9.73576
▁native	-9.7364
.*;	-9.73672
▁6	-9.73719
▁device	-9.7373
▁invoke	-9.73771
▁JSONObject	-9.73796
Obj	-9.73865
▁By	-9.73884
▁rows	-9.73934
Fragment	-9.73943
▁follows	-9.73951
▁usually	-9.73954
▁host	-9.74278
▁P	-9.74425
Default	-9.74495
▁repository	-9.74502
▁2)	-9.74538
▁allowed	-9.74549
▁HashSet	-9.74671
Messages	-9.74744
▁outside	-9.74773
newInstance	-9.7483
▁register	-9.74881
▁signature	-9.74891
▁cell	-9.74958
▁Activity	-9.75022
▁selected	-9.75119
▁sense	-9.752
Root	-9.75356
▁Edit	-9.75357
One	-9.75357
▁related	-9.75378
Style	-9.75388
▁little	-9.75529
▁channel	-9.75602
isEntryE	-9.75865
▁processing	-9.75915
▁xml	-9.75917
▁unique	-9.76128
lt	-9.76283
▁solved	-9.76313
generated	-9.7658
▁Foo	-9.76674
▁provider	-9.76675
▁maximum	-9.76677
▁easier	-9.76728
▁tell	-9.76744
▁locale	-9.7676
▁uri	-9.76815
maven	-9.76872
Block	-9.76955
▁provides	-9.76969
▁comments	-9.76993
▁controller	-9.77036
boolean	-9.77194
ws	-9.77286
Mapping	-9.7732
▁URI	-9.77385
Converter	-9.77477
▁ways	-9.77569
output	-9.77625
▁Swing	-9.77648
ServiceResponse	-9.77706
▁remote	-9.77714
en	-9.77726
dir	-9.77768
bit	-9.77862
▁binary	-9.77943
Params	-9.78111
▁pos	-9.78212
session	-9.78231
▁occurs	-9.7826
▁install	-9.78286
▁counter	-9.78319
Person	-9.78474
▁syntax	-9.7851
▁{}	-9.78551
▁screen	-9.78633
▁currently	-9.78647
▁socket	-9.79114
▁checked	-9.79161
▁assert	-9.79397
▁columns	-9.79551
Call	-9.79599
▁Windows	-9.79623
readLine	-9.79754
Layout	-9.79768
XML	-9.79903
▁design	-9.7996
ip	-9.79971
▁Because	-9.80005
▁due	-9.80024
button	-9.80285
▁implemented	-9.80358
Details	-9.80402
▁timeout	-9.80595
▁requires	-9.80771
OnClickListener	-9.80775
App	-9.80785
▁corresponding	-9.80853
==	-9.80907
Char	-9.80969
Directory	-9.81028
▁worked	-9.81053
last	-9.81102
GroupName	-9.81193
▁contents	-9.81243
ON	-9.81244
▁Update	-9.81274
▁quite	-9.81302
▁commerce	-9.81313
▁framework	-9.81515
status	-9.81554
▁"";	-9.81661
▁security	-9.81911
▁manager	-9.81937
DB	-9.82044
▁0);	-9.82089
Unable	-9.82218
security	-9.82244
▁small	-9.82313
▁col	-9.82366
First	-9.82399
▁IllegalState	-9.82494
▁yet	-9.82518
▁initialized	-9.82552
▁several	-9.82664
▁annotations	-9.82698
▁requests	-9.82923
▁special	-9.82941
1)	-9.83014
▁Do	-9.8306
▁Gets	-9.8315
open	-9.83204
▁Main	-9.83257
jdbc	-9.8328
▁representation	-9.83292
▁events	-9.83318
As	-9.83334
un	-9.83402
▁xmlns	-9.83563
sub	-9.8357
Part	-9.83596
▁easily	-9.83615
Out	-9.83621
arg	-9.83627
Collectors	-9.837
▁browser	-9.83722
"),	-9.83752
▁NullPointer	-9.83787
Option	-9.83822
wrap	-9.83839
MAX	-9.83857
▁issues	-9.83894
▁pre	-9.8392
Schema	-9.83979
▁arrays	-9.83998
▁sent	-9.84008
▁far	-9.84074
▁ensure	-9.84074
▁invalid	-9.84108
▁extension	-9.84159
▁machine	-9.84203
Throwable	-9.84405
nextLine	-9.84416
Project	-9.84502
▁Make	-9.84554
▁day	-9.84785
▁Abstract	-9.84925
▁H	-9.84987
(1,	-9.8503
▁equivalent	-9.85091
annotation	-9.85114
▁tried	-9.85222
▁configured	-9.85354
▁extra	-9.8538
▁bundle	-9.85428
left	-9.8548
entrySet	-9.85571
ED	-9.85607
▁whatever	-9.85634
static	-9.85653
▁download	-9.85731
▁started	-9.85803
▁changing	-9.85811
spring	-9.8593
GET	-9.85939
▁resolve	-9.86145
Frame	-9.86701
dInstanceState	-9.86736
forEach	-9.86804
>()	-9.86906
Javadoc	-9.86941
▁unless	-9.86952
INF	-9.86997
ref	-9.87102
▁metadata	-9.87212
▁DB	-9.87451
Json	-9.87578
▁Base	-9.8758
▁together	-9.87605
▁initial	-9.87622
▁says	-9.8784
▁destination	-9.8789
setVisible	-9.87935
Description	-9.87971
▁flag	-9.88109
▁"/	-9.88146
▁auto	-9.88154
▁assume	-9.88202
▁bad	-9.88278
▁constant	-9.88473
Fields	-9.88512
▁Change	-9.88529
▁passing	-9.88547
▁validate	-9.88581
Scope	-9.88677
mozu	-9.88716
▁Calendar	-9.88874
▁background	-9.88896
td	-9.89005
▁properly	-9.89033
example	-9.89094
Height	-9.89157
▁Some	-9.89366
▁Apache	-9.89541
▁require	-9.89549
▁Not	-9.89576
(1);	-9.89599
[][]	-9.89852
▁modified	-9.89916
pattern	-9.89946
++){	-9.90023
gt	-9.9004
▁BigDecimal	-9.90173
required	-9.90219
▁namespace	-9.90414
exception	-9.90437
title	-9.9052
▁normal	-9.90582
▁onCreate	-9.9065
page	-9.90731
▁mapper	-9.90759
▁raw	-9.90896
▁adapter	-9.90909
unchecked	-9.91032
▁title	-9.91053
▁Google	-9.91101
ex	-9.91156
Form	-9.912
▁SibTr	-9.91245
▁product	-9.91275
Mapper	-9.91327
▁fetch	-9.91421
by	-9.91425
Character	-9.9147
Read	-9.91521
startsWith	-9.91578
Processor	-9.91696
Sub	-9.91703
▁Otherwise	-9.91893
Files	-9.91903
▁Another	-9.91911
▁M	-9.92214
▁against	-9.92305
This	-9.92463
▁three	-9.9251
[])	-9.92527
▁They	-9.9253
▁AWS	-9.92608
activity	-9.92674
float	-9.92874
▁G	-9.929
▁fragment	-9.92966
▁domain	-9.9306
▁entire	-9.93094
▁creates	-9.93128
▁z	-9.93247
▁refer	-9.93263
▁Person	-9.93427
▁expect	-9.93513
▁sql	-9.93756
▁manually	-9.93766
▁-1	-9.938
mm	-9.93834
[1]	-9.93846
▁menu	-9.9387
▁tutorial	-9.93909
Child	-9.93919
▁gives	-9.94049
use	-9.94101
▁regular	-9.9418
Parent	-9.94226
▁external	-9.94254
▁JButton	-9.94316
contracts	-9.94352
▁-1;	-9.94361
▁happen	-9.94401
▁tasks	-9.94416
Module	-9.94439
▁subclass	-9.94481
getTime	-9.94494
▁hard	-9.94607
Local	-9.94637
▁Simple	-9.94734
▁primary	-9.94815
Q	-9.94829
Password	-9.94869
▁headers	-9.94875
(!	-9.94894
▁Tomcat	-9.94918
▁Sets	-9.94945
16	-9.94983
▁maybe	-9.95039
▁tmp	-9.95117
matches	-9.95155
▁JDBC	-9.95259
▁Server	-9.95281
container	-9.95385
Window	-9.95476
▁usage	-9.95625
equalsIgnoreCase	-9.9565
var	-9.95703
like	-9.95716
▁storage	-9.95716
Not	-9.95737
temp	-9.95795
ERROR	-9.95898
post	-9.95938
Unit	-9.96053
os	-9.96088
port	-9.96099
msg	-9.96187
st	-9.96266
▁large	-9.96381
▁built	-9.96425
label	-9.9648
local	-9.96494
▁important	-9.96508
Generator	-9.96591
▁Stream	-9.96635
Ids	-9.96753
▁successful	-9.96789
Dialog	-9.96821
])	-9.96866
▁shared	-9.96888
▁Tr	-9.9693
▁extract	-9.97
▁ByteArray	-9.97034
Proxy	-9.97036
Lock	-9.9706
▁testing	-9.97061
:\	-9.97193
▁bits	-9.97251
MM	-9.97252
▁checking	-9.9727
▁further	-9.9732
▁declaration	-9.97321
▁JPA	-9.97353
Vector	-9.97535
column	-9.97644
▁scan	-9.97689
▁Why	-9.97694
▁JLabel	-9.97695
▁parts	-9.97701
right	-9.9774
up	-9.9779
TextView	-9.97823
token	-9.97895
Items	-9.9792
JSON	-9.97947
▁Output	-9.98104
tag	-9.98167
Statement	-9.98179
▁believe	-9.982
Create	-9.98248
▁please	-9.983
Locale	-9.98367
▁heap	-9.9852
Authentication	-9.98651
Future	-9.98661
},	-9.9869
Foo	-9.9876
isDebugEnabled	-9.98837
hibernate	-9.98858
▁seconds	-9.99186
username	-9.99215
search	-9.99415
Prefix	-9.99422
warn	-9.99575
▁username	-9.99698
Nullable	-9.99723
▁rules	-9.99725
▁box	-9.99761
Max	-9.99798
▁-1)	-9.99891
▁basic	-9.99951
▁setup	-10.0006
▁primitive	-10.0006
▁choose	-10.0007
connection	-10.0017
▁tab	-10.0026
Search	-10.0027
▁StringBuffer	-10.003
▁closed	-10.0038
Body	-10.004
)));	-10.0047
col	-10.0068
▁console	-10.0068
00	-10.0069
▁comes	-10.0071
▁including	-10.0076
▁achieve	-10.0077
DEFAULT	-10.0081
▁wrapper	-10.0085
▁q	-10.0092
▁returning	-10.0095
toArray	-10.0098
11	-10.0105
▁determine	-10.0109
▁Document	-10.0112
▁included	-10.012
▁extend	-10.0121
▁longer	-10.0123
▁features	-10.0126
▁interfaces	-10.0135
▁certificate	-10.0135
▁conn	-10.0139
▁cluster	-10.0144
▁basically	-10.0154
▁thus	-10.0159
▁iterate	-10.0165
▁our	-10.017
Logger	-10.0172
Database	-10.0178
▁++	-10.0182
containsKey	-10.0188
Check	-10.019
Val	-10.0191
▁Don	-10.0192
▁tool	-10.0193
▁OS	-10.0207
▁layer	-10.0217
res	-10.0227
age	-10.0231
▁identifier	-10.0237
▁tags	-10.0239
▁goes	-10.0242
script	-10.0243
▁report	-10.0245
At	-10.0247
="@	-10.0249
getBytes	-10.0264
▁release	-10.0269
▁according	-10.0272
dp	-10.0279
Spec	-10.0295
Stack	-10.0301
▁year	-10.0328
▁follow	-10.0331
Folder	-10.0336
▁applications	-10.034
Keys	-10.0346
▁free	-10.0357
▁connect	-10.0358
▁chain	-10.036
▁sorted	-10.0363
compareTo	-10.0382
▁authentication	-10.0385
/{	-10.0396
▁managed	-10.0418
▁care	-10.042
len	-10.0423
▁iteration	-10.0427
▁Oracle	-10.0432
\"	-10.0434
▁implementations	-10.0439
▁assign	-10.0445
▁depending	-10.0446
▁matter	-10.0449
instance	-10.045
▁children	-10.0452
box	-10.0454
}/	-10.0454
▁optional	-10.047
driver	-10.0472
FileOutputStream	-10.0475
Elements	-10.0485
arr	-10.0492
localhost	-10.0493
else	-10.0496
▁Read	-10.0497
findViewById	-10.0499
other	-10.05
▁visible	-10.0501
▁big	-10.0507
▁desired	-10.0508
TAG	-10.0519
Holder	-10.0523
▁pom	-10.053
▁runs	-10.0555
▁shouldn	-10.0557
▁JAR	-10.0561
▁supports	-10.0566
cp	-10.0577
▁underlying	-10.0577
SELECT	-10.0613
▁functionality	-10.0614
Doc	-10.0617
jsp	-10.0624
▁Properties	-10.0626
internal	-10.0628
offset	-10.0629
location	-10.064
register	-10.0644
▁certain	-10.0648
Feature	-10.0652
Word	-10.0657
▁rest	-10.0657
▁Project	-10.066
▁dest	-10.0661
▁Once	-10.0662
▁hand	-10.0663
style	-10.0669
err	-10.067
ActionEvent	-10.067
entity	-10.0679
Box	-10.0679
▁"\	-10.0681
Add	-10.0683
▁2,	-10.0686
▁accept	-10.069
IN	-10.0704
HOME	-10.0704
▁cursor	-10.0713
▁known	-10.0717
▁active	-10.0717
point	-10.074
▁HttpServlet	-10.0741
▁email	-10.0741
ation	-10.0742
▁dir	-10.0745
If	-10.0746
▁login	-10.0747
▁u	-10.0762
Strategy	-10.0763
Enum	-10.0766
Def	-10.0788
uri	-10.0795
▁D	-10.0804
home	-10.0813
▁bound	-10.0815
Failed	-10.0841
▁exact	-10.0844
▁timer	-10.0867
▁edit	-10.0872
("\	-10.0874
▁statements	-10.0879
▁draw	-10.0882
apply	-10.0883
▁lower	-10.0886
Cell	-10.0886
Variable	-10.0887
▁docs	-10.0892
Control	-10.0897
▁invoked	-10.0928
▁loader	-10.0929
▁rs	-10.0934
word	-10.0936
Hello	-10.0942
INSTANCE	-10.0948
Last	-10.0951
▁people	-10.0981
ClassLoader	-10.0991
Abstract	-10.0994
Var	-10.0998
▁encoded	-10.1003
▁hope	-10.1004
bytes	-10.1004
sleep	-10.1016
Is	-10.1017
+"	-10.1021
▁Web	-10.1021
!");	-10.1025
Main	-10.1034
▁Comparator	-10.1038
NonNull	-10.104
Process	-10.1047
Match	-10.1048
▁relative	-10.1065
Matrix	-10.1073
lock	-10.1082
cache	-10.1083
Product	-10.1084
Port	-10.1086
▁Point	-10.1097
▁ch	-10.1099
▁FileInputStream	-10.11
sample	-10.1101
▁month	-10.113
builder	-10.1132
▁shown	-10.1137
▁requested	-10.1143
task	-10.1149
process	-10.1165
▁nested	-10.1176
▁parsing	-10.1179
▁Vector	-10.118
derByComparator	-10.1211
logger	-10.1238
▁FROM	-10.125
Enabled	-10.1251
▁vector	-10.1256
▁stuff	-10.1256
▁negative	-10.1257
Void	-10.126
▁IDE	-10.1261
▁These	-10.1266
▁conversion	-10.1268
▁protocol	-10.1271
scope	-10.1277
▁F	-10.1284
▁Random	-10.1285
▁logging	-10.1285
Scanner	-10.1287
bind	-10.1315
host	-10.1325
▁LOGGER	-10.1326
Delete	-10.1329
▁functions	-10.1334
copy	-10.1335
▁sc	-10.1337
Account	-10.1338
▁bar	-10.1344
▁examples	-10.1348
call	-10.1352
Consumer	-10.136
▁proper	-10.1362
}"	-10.1363
▁scale	-10.1371
▁resolved	-10.1372
▁handling	-10.1386
ClassName	-10.1408
▁graph	-10.1419
▁who	-10.1421
JFrame	-10.1423
Notification	-10.1448
▁join	-10.1449
▁entities	-10.1449
cloud	-10.1455
SQL	-10.1463
Certificate	-10.1478
▁often	-10.1484
▁GUI	-10.1489
Comparator	-10.1491
Title	-10.1494
Pool	-10.1499
▁safe	-10.1507
Change	-10.1507
▁multi	-10.1509
▁editor	-10.1511
▁eclipse	-10.1511
▁engine	-10.1525
▁therefore	-10.1534
▁L	-10.1536
01	-10.1538
▁paint	-10.1541
Users	-10.1544
so	-10.1564
join	-10.1576
▁DateTime	-10.1578
▁cp	-10.1583
product	-10.1588
intent	-10.1597
1;	-10.1599
▁registered	-10.1604
▁hold	-10.1604
▁<<	-10.1605
Driver	-10.1613
▁checks	-10.1617
▁filename	-10.1626
▁clean	-10.1629
▁practice	-10.1629
▁2;	-10.1632
▁batch	-10.1643
20	-10.1649
▁converted	-10.1649
currentTimeMilli	-10.1656
▁Code	-10.1658
invoke	-10.1662
▁platform	-10.1669
header	-10.1672
Host	-10.1676
▁person	-10.1676
▁Resource	-10.168
exists	-10.1681
javax	-10.1683
▁described	-10.1693
▁Data	-10.1695
▁Color	-10.1701
▁findViewById	-10.1704
try	-10.1708
▁matcher	-10.1712
-8	-10.1726
▁starts	-10.173
▁completely	-10.1732
▁loading	-10.1734
yyyy	-10.1739
▁global	-10.1745
▁Throwable	-10.1754
▁trace	-10.1778
▁Matcher	-10.1778
ui	-10.1786
▁LinkedList	-10.1803
Interval	-10.1812
▁con	-10.1813
▁steps	-10.1815
tr	-10.1818
getResource	-10.182
el	-10.1833
Report	-10.1843
▁formatter	-10.1845
▁parsed	-10.185
based	-10.1855
Xml	-10.1858
▁site	-10.1865
▁specification	-10.1865
de	-10.1866
you	-10.1869
▁enter	-10.1873
NO	-10.1878
='	-10.1881
WithService	-10.1881
▁ignore	-10.1885
Next	-10.1889
Graphics	-10.1894
ResponseAsync	-10.1899
Resources	-10.1903
->	-10.1905
Servlet	-10.1912
▁whose	-10.1915
▁Have	-10.1917
▁come	-10.1918
▁supplied	-10.1918
getAttribute	-10.1921
admin	-10.1938
Left	-10.194
Timeout	-10.1944
▁third	-10.1945
▁Therefore	-10.1957
▁complex	-10.1959
Profile	-10.197
▁profile	-10.1972
▁def	-10.1978
▁Custom	-10.1979
HttpServlet	-10.198
▁ctx	-10.1985
sum	-10.1985
insert	-10.1985
Api	-10.1988
▁Image	-10.1995
(1)	-10.1997
Resolver	-10.1998
▁executor	-10.1998
Optional	-10.1998
IP	-10.2013
▁endpoint	-10.2038
▁someone	-10.2039
▁At	-10.2046
2;	-10.2049
drawable	-10.2049
▁enable	-10.2064
▁scanner	-10.2069
EClass	-10.2089
Formatter	-10.2089
boot	-10.2091
Script	-10.2092
▁100	-10.2105
setProperty	-10.2113
▁immediately	-10.2113
Byte	-10.2115
address	-10.2117
▁consumer	-10.2121
▁distance	-10.2121
▁others	-10.2123
▁alternative	-10.2128
Pair	-10.2129
▁calculate	-10.214
▁installed	-10.2141
POST	-10.2142
Category	-10.2145
OF	-10.2147
listener	-10.2152
eclipse	-10.2156
function	-10.2157
▁game	-10.2164
▁merge	-10.2167
▁choice	-10.217
▁de	-10.2173
UI	-10.2175
▁SQLException	-10.2178
▁calendar	-10.218
▁JSP	-10.2182
LA	-10.2183
old	-10.2188
▁resulting	-10.2198
▁representing	-10.2205
Enter	-10.2206
order	-10.2219
▁onClick	-10.2222
▁Maybe	-10.2223
▁push	-10.2225
▁services	-10.2227
▁BufferedImage	-10.2234
▁Something	-10.2234
("\\	-10.2238
▁mock	-10.2239
Run	-10.2246
op	-10.2246
ALL	-10.2251
▁Thanks	-10.2256
while	-10.2257
Summary	-10.2271
▁faster	-10.2274
▁reflection	-10.2292
include	-10.2301
catch	-10.2305
Write	-10.2312
▁props	-10.2331
Encoding	-10.2348
▁effect	-10.2354
],	-10.2356
▁enabled	-10.2368
▁represents	-10.2375
ion	-10.2376
trace	-10.238
▁9	-10.238
▁seem	-10.2385
▁Build	-10.2386
("<	-10.2391
▁receive	-10.2394
Counter	-10.2396
DataSource	-10.2397
18	-10.2404
ic	-10.2408
▁compiled	-10.2418
▁Files	-10.2423
▁images	-10.2426
Graph	-10.243
document	-10.2431
▁Number	-10.2436
buf	-10.2436
tree	-10.2442
▁policy	-10.2443
▁verify	-10.245
module	-10.2477
▁comparator	-10.2481
▁App	-10.2483
me	-10.2488
an	-10.2501
▁NOT	-10.2505
Extension	-10.2512
▁Toast	-10.2516
Matcher	-10.2519
▁projects	-10.2527
ant	-10.2542
fill	-10.2544
stop	-10.2552
▁creation	-10.2568
▁req	-10.2569
br	-10.257
Environment	-10.257
▁Let	-10.258
LOG	-10.2589
Len	-10.2591
Results	-10.2598
Select	-10.2598
getWidth	-10.2609
▁head	-10.2611
classes	-10.2619
▁Result	-10.2623
flush	-10.2638
keySet	-10.2639
▁ask	-10.264
▁zone	-10.2648
▁purpose	-10.2651
▁BorderLayout	-10.266
▁pair	-10.2663
▁sets	-10.2663
▁wrapped	-10.2666
▁Finally	-10.267
Dao	-10.2676
▁Connection	-10.2676
▁grid	-10.2688
▁prevent	-10.2691
▁wrap	-10.2694
▁player	-10.2699
Execution	-10.27
Endpoint	-10.2705
▁Amazon	-10.2715
tmp	-10.2715
▁implementing	-10.2717
▁Path	-10.2718
Sequence	-10.2719
▁haven	-10.2732
▁escape	-10.2737
▁REST	-10.2749
▁bind	-10.275
▁Return	-10.2752
▁applied	-10.2759
Security	-10.2759
▁Cms	-10.2763
▁initialization	-10.2775
▁Comparable	-10.2775
▁latest	-10.2783
Auth	-10.2786
▁Each	-10.2787
getDefault	-10.2792
▁topic	-10.2801
nd	-10.2813
▁Well	-10.2814
After	-10.2816
▁segment	-10.2819
plugins	-10.2828
▁turn	-10.2829
Copy	-10.2831
▁article	-10.2831
()){	-10.2838
empty	-10.2839
▁high	-10.2843
▁:)	-10.2844
▁Pr	-10.2847
sun	-10.2848
▁fully	-10.2863
Timer	-10.2874
Bar	-10.2875
sh	-10.2875
toList	-10.2883
mapping	-10.289
▁along	-10.2897
login	-10.29
--;	-10.2901
Hash	-10.2908
▁tokens	-10.291
▁generally	-10.2911
▁beans	-10.2915
▁includes	-10.2925
▁Service	-10.2927
support	-10.2932
getPath	-10.2937
▁getter	-10.2949
▁dynamic	-10.2957
Identifier	-10.2959
▁ResultSet	-10.2962
exe	-10.2962
▁1.0	-10.2966
▁digits	-10.2968
LENGTH	-10.297
channel	-10.2975
random	-10.2977
FILE	-10.2984
Engine	-10.3003
PATH	-10.3011
attribute	-10.3018
-1	-10.3027
store	-10.3037
▁Adds	-10.3046
getHeight	-10.3049
▁font	-10.3055
▁direct	-10.3055
▁virtual	-10.3056
▁self	-10.3063
Classes	-10.3063
▁garbage	-10.3071
[0];	-10.3074
▁track	-10.3078
▁binding	-10.3083
Menu	-10.3087
▁wouldn	-10.3088
getX	-10.3099
▁greater	-10.3106
env	-10.3123
Loader	-10.3127
Changed	-10.3148
▁Any	-10.3149
ent	-10.3151
toLowerCase	-10.3153
Args	-10.3156
Internal	-10.3166
▁tools	-10.3176
!=	-10.3187
▁Function	-10.3187
Msg	-10.3194
▁TimeUnit	-10.3195
Binding	-10.3198
▁considered	-10.32
Re	-10.3201
Handle	-10.3212
▁MyClass	-10.322
▁wanted	-10.322
▁play	-10.3222
▁Response	-10.3225
Executor	-10.3226
API	-10.3231
Interceptor	-10.3231
▁fill	-10.3235
▁BigInteger	-10.3237
▁seen	-10.3245
▁Is	-10.3245
▁shows	-10.3249
▁invocation	-10.3251
▁days	-10.3255
▁K	-10.3256
="@+	-10.3264
▁mind	-10.3266
runtime	-10.327
Device	-10.3271
conf	-10.3281
ActionListener	-10.3283
▁'"	-10.3285
▁appear	-10.3285
▁skip	-10.3287
▁stmt	-10.329
▁queries	-10.3291
reader	-10.3298
▁Open	-10.3303
▁W	-10.331
Condition	-10.3317
us	-10.3322
range	-10.3334
Role	-10.3335
▁anyway	-10.3341
send	-10.3342
safe	-10.3343
▁waiting	-10.3357
▁html	-10.3364
ie	-10.3369
▁{}",	-10.3372
▁Element	-10.3376
▁progress	-10.3377
▁compute	-10.3381
Socket	-10.3386
▁notification	-10.339
Post	-10.3393
▁answers	-10.34
▁render	-10.3401
▁instantiate	-10.3412
exec	-10.3416
Nonnull	-10.3418
▁reset	-10.3429
▁JRE	-10.3431
▁represent	-10.344
▁outer	-10.3441
▁sending	-10.3446
▁Marshall	-10.3447
▁Query	-10.3451
▁low	-10.3452
▁lookup	-10.3459
clazz	-10.346
▁javadoc	-10.3466
optional	-10.3467
▁groups	-10.3469
classpath	-10.3473
VERSION	-10.3492
Selection	-10.3496
▁javafx	-10.3511
Custom	-10.3512
▁behaviour	-10.3514
▁members	-10.3515
Serializer	-10.3527
nputStreamReader	-10.3533
commerce	-10.3536
accept	-10.3555
▁immutable	-10.3556
▁listeners	-10.357
▁br	-10.3575
Interrupted	-10.3587
▁timestamp	-10.3591
▁permission	-10.3604
▁More	-10.3606
CODE	-10.3608
getData	-10.361
▁caller	-10.362
▁actionPerformed	-10.3621
_2>	-10.3626
Member	-10.3626
Before	-10.363
▁appears	-10.3633
▁linked	-10.3635
head	-10.3637
▁connections	-10.3653
CLOSE	-10.3654
ACTION	-10.3658
▁assigned	-10.3659
ibm	-10.3673
▁mapped	-10.3679
▁updates	-10.3681
Un	-10.3681
----------------	-10.3684
PreparedStatemen	-10.3686
Segment	-10.3693
▁share	-10.3694
▁becomes	-10.3698
▁VM	-10.3704
ar	-10.3708
▁ever	-10.3714
job	-10.3736
▁aren	-10.3745
▁subject	-10.3749
Autowired	-10.3751
click	-10.3758
3,	-10.3758
▁Locale	-10.3759
component	-10.3766
▁assuming	-10.3773
▁trigger	-10.3786
▁expressions	-10.3789
▁Servlet	-10.3792
▁region	-10.3793
TO	-10.3794
▁Runtime	-10.3794
▁Which	-10.3802
3.	-10.3804
▁manifest	-10.3806
pack	-10.3806
▁reasons	-10.3809
▁except	-10.381
()}	-10.3819
▁keyword	-10.3821
▁WHERE	-10.3821
DateTime	-10.3826
Storage	-10.3827
▁cal	-10.3835
Support	-10.3836
▁tested	-10.3838
0,	-10.384
▁efficient	-10.3848
▁executing	-10.3851
▁transform	-10.3853
Chain	-10.386
Score	-10.3861
▁Button	-10.3878
▁ignored	-10.3878
▁Take	-10.3896
Permission	-10.3905
You	-10.3915
▁GC	-10.3918
▁duration	-10.3921
Http	-10.3929
using	-10.3936
▁programming	-10.3941
▁permissions	-10.3949
▁attempt	-10.395
▁spec	-10.395
▁annotated	-10.3952
▁Basically	-10.3956
▁Remove	-10.3961
Open	-10.3967
▁inject	-10.3969
▁fileName	-10.3977
▁minimum	-10.3979
▁blocks	-10.398
▁Array	-10.4017
▁criteria	-10.4019
▁ByteBuffer	-10.4019
forName	-10.4035
jdk	-10.404
▁yes	-10.4043
▁sign	-10.4043
▁U	-10.4045
Space	-10.4051
▁terms	-10.4061
▁world	-10.4062
total	-10.4072
▁shell	-10.4072
png	-10.4075
red	-10.4076
▁construct	-10.4076
setValue	-10.4081
Batch	-10.4085
▁charset	-10.4088
Headers	-10.409
▁jars	-10.4095
▁Iterable	-10.4095
Float	-10.41
▁deleted	-10.4104
▁JAXBElement	-10.4108
▁term	-10.4113
▁addition	-10.4117
▁replaced	-10.413
▁obtain	-10.413
Validator	-10.4142
▁beginning	-10.4152
▁almost	-10.4154
▁icon	-10.4157
_0	-10.4159
Flow	-10.416
▁IP	-10.4163
▁ActionListener	-10.4164
▁area	-10.4167
email	-10.417
printf	-10.4173
▁hibernate	-10.4188
where	-10.4192
Destination	-10.4194
Step	-10.4194
▁serviceCallback	-10.4202
▁upper	-10.4207
▁Thus	-10.4207
Col	-10.4212
▁away	-10.4215
mail	-10.4217
only	-10.4222
▁JOptionPane	-10.4228
▁bottom	-10.423
▁received	-10.4231
Cms	-10.4232
▁force	-10.4236
Right	-10.4245
▁explicit	-10.4246
▁failure	-10.4248
▁snippet	-10.4248
getInt	-10.4249
Current	-10.4251
le	-10.4254
▁UTF	-10.4257
▁upload	-10.4269
It	-10.4278
▁lists	-10.4281
▁While	-10.4283
▁flow	-10.4289
▁predicate	-10.4301
▁//	-10.4302
img	-10.4313
▁Interrupted	-10.4333
▁Can	-10.434
validate	-10.4345
[2]	-10.4347
Nodes	-10.4356
▁3)	-10.4356
Login	-10.4361
frame	-10.4362
abc	-10.4362
▁ServiceFuture	-10.4382
beans	-10.4393
Objects	-10.4396
▁encode	-10.4397
▁somewhere	-10.4401
commit	-10.4411
▁registry	-10.4412
commons	-10.4425
Predicate	-10.4426
▁role	-10.4426
▁mark	-10.444
now	-10.4443
Web	-10.4446
▁assignment	-10.4447
▁across	-10.4447
▁2.0	-10.4449
▁situation	-10.4455
interface	-10.4458
"+	-10.4458
profile	-10.4462
execution	-10.4465
▁mechanism	-10.4465
▁injection	-10.4465
▁Even	-10.4468
▁Timer	-10.447
Two	-10.4478
Build	-10.4485
NOT	-10.4496
ING	-10.4506
)))	-10.4513
▁cached	-10.4516
generate	-10.4517
▁prefer	-10.4526
▁TextView	-10.4534
▁letter	-10.4536
▁disk	-10.4538
▁Character	-10.4539
▁hashCode	-10.454
▁relevant	-10.4546
▁followed	-10.4549
▁lib	-10.4553
onCreate	-10.4555
":"	-10.4556
▁comparison	-10.4557
▁Session	-10.4568
14	-10.4569
▁contained	-10.4579
13	-10.458
Timestamp	-10.4585
▁selection	-10.4586
hello	-10.4587
case	-10.4588
▁positive	-10.4591
Program	-10.4597
directory	-10.4601
▁deal	-10.4602
▁literal	-10.4602
Font	-10.4606
▁interval	-10.4626
command	-10.4628
▁streams	-10.4638
Editor	-10.4643
▁links	-10.4643
Entries	-10.4647
▁us	-10.4664
Selector	-10.4666
▁"<	-10.4671
OK	-10.4677
prefix	-10.4683
HashMap	-10.4689
▁suggested	-10.4693
▁nice	-10.47
NotFound	-10.4701
▁route	-10.4702
▁Security	-10.4703
▁Run	-10.4705
Min	-10.4713
beta	-10.4715
▁Jackson	-10.4716
Example	-10.4718
▁removing	-10.4721
▁fast	-10.4731
▁coordinates	-10.4737
▁Client	-10.4754
def	-10.4755
TIME	-10.4758
ro	-10.476
▁packages	-10.476
Tags	-10.4761
▁Message	-10.4764
domain	-10.4768
▁SDK	-10.4777
▁According	-10.4778
handle	-10.4786
▁warning	-10.4787
▁st	-10.479
NotNull	-10.4791
description	-10.4792
Information	-10.4799
submit	-10.48
▁occurred	-10.4801
encode	-10.4805
▁pointer	-10.4805
DATE	-10.4806
limit	-10.4813
Player	-10.4818
▁reverse	-10.4821
▁paths	-10.4828
Grid	-10.4833
▁zip	-10.4837
▁ObjectMapper	-10.4837
▁Assuming	-10.4838
▁hence	-10.484
record	-10.4845
ur	-10.4846
▁processed	-10.4855
binding	-10.4857
▁setter	-10.4864
▁meta	-10.4871
▁auth	-10.4873
▁chars	-10.4879
getInputStream	-10.4879
▁export	-10.4894
js	-10.4895
option	-10.4895
▁various	-10.4899
RequestMapping	-10.4909
▁Re	-10.4918
▁lambda	-10.4921
};	-10.4946
▁commit	-10.4951
▁book	-10.4952
▁meaning	-10.4955
Limit	-10.4958
▁period	-10.4974
failed	-10.4975
Screen	-10.4976
Work	-10.4985
▁Field	-10.4992
transform	-10.4994
ment	-10.4996
Day	-10.4997
Argument	-10.5002
▁launch	-10.5017
▁produce	-10.5021
▁anonymous	-10.503
0)	-10.5035
▁debug	-10.5048
Renderer	-10.5051
25	-10.5053
▁decimal	-10.5056
▁serialize	-10.5061
▁\"	-10.5061
▁center	-10.5061
509	-10.5067
▁score	-10.5069
second	-10.5071
prop	-10.5074
gradle	-10.5076
options	-10.5079
Detail	-10.5084
[0].	-10.5086
▁price	-10.5089
▁iter	-10.5089
CLASS	-10.5092
▁successfully	-10.5102
▁detail	-10.5105
opencms	-10.512
[]{	-10.5122
sb	-10.5124
▁holder	-10.5129
▁indicates	-10.5136
ele	-10.5136
when	-10.5138
▁Alternatively	-10.5139
ER	-10.5139
Load	-10.5141
▁stage	-10.5145
but	-10.5147
24	-10.5147
Duration	-10.5149
▁observable	-10.5154
▁async	-10.5156
INT	-10.5159
getContext	-10.5165
▁OutputStream	-10.5174
▁AND	-10.5179
▁states	-10.5184
▁notify	-10.5185
15	-10.5185
▁payload	-10.5185
▁occur	-10.5192
Validation	-10.5193
Stats	-10.5198
that	-10.5199
EventListener	-10.52
▁bounds	-10.52
Simple	-10.5201
Sum	-10.5211
connect	-10.5215
▁clause	-10.5221
▁defaultValue	-10.5225
▁3,	-10.5227
▁none	-10.5232
▁Serializable	-10.5236
Pane	-10.5237
ad	-10.5253
STRING	-10.5255
▁Http	-10.5256
▁records	-10.5256
Icon	-10.5258
schema	-10.5261
▁become	-10.5265
sourceGroupName	-10.5266
Only	-10.5271
▁resp	-10.5291
Runnable	-10.5294
Domain	-10.5297
USER	-10.5299
Random	-10.5302
▁designed	-10.5302
Stage	-10.5305
et	-10.5321
▁helper	-10.5322
▁absolute	-10.5327
getParent	-10.5331
ee	-10.5332
attr	-10.5334
▁JSONArray	-10.5337
FileName	-10.534
scene	-10.5349
▁descriptor	-10.5351
▁higher	-10.5355
▁ones	-10.5356
idx	-10.536
▁prop	-10.5361
▁remember	-10.5363
setName	-10.5367
▁env	-10.5371
▁buttons	-10.5377
▁category	-10.5378
Snapshot	-10.5379
Up	-10.5409
▁delay	-10.541
make	-10.5412
▁NOTE	-10.5413
▁upon	-10.5423
▁20	-10.5435
▁figure	-10.5443
▁1:	-10.5446
▁generics	-10.5446
▁great	-10.545
permission	-10.546
per	-10.5468
logging	-10.5473
getCurrent	-10.5482
Tab	-10.5485
▁disable	-10.5488
▁direction	-10.5493
Groups	-10.5495
Arr	-10.5501
▁Database	-10.5503
handler	-10.5503
▁Documentation	-10.5507
▁Second	-10.5513
▁os	-10.5522
▁quick	-10.5532
▁spaces	-10.5533
Cluster	-10.5535
▁finish	-10.5546
▁increment	-10.5548
▁success	-10.5555
▁aware	-10.5557
▁Logger	-10.5563
display	-10.5572
▁performed	-10.5574
▁conditions	-10.5577
template	-10.5578
▁Json	-10.558
▁Only	-10.5585
dependencies	-10.5586
▁parallel	-10.5587
_1	-10.559
▁Process	-10.5592
abs	-10.5603
ive	-10.5604
DAY	-10.5612
system	-10.5617
▁Time	-10.5618
▁strategy	-10.5619
hash	-10.5624
▁referenced	-10.5627
junit	-10.5641
▁cookie	-10.5643
("%	-10.5646
Iterable	-10.5647
Some	-10.565
▁tables	-10.5651
side	-10.5655
impl	-10.5665
▁milliseconds	-10.5665
▁wish	-10.5667
DATA	-10.5671
▁className	-10.5671
▁closing	-10.5684
StringUtils	-10.569
ce	-10.57
▁ps	-10.5702
ul	-10.571
▁twice	-10.5713
Card	-10.5718
iv	-10.5728
▁forward	-10.5733
Null	-10.5735
▁possibly	-10.5738
zip	-10.5739
Mock	-10.5741
▁increase	-10.576
Valid	-10.5764
▁relationship	-10.5774
▁"/"	-10.578
Region	-10.5784
▁Gson	-10.5786
[0]);	-10.5786
▁partition	-10.5787
(0)	-10.579
▁tomcat	-10.5794
block	-10.5796
▁Text	-10.5806
compare	-10.581
INFO	-10.5831
dt	-10.5831
▁singleton	-10.5833
▁typically	-10.5838
▁reduce	-10.5843
▁caused	-10.5849
++]	-10.5851
▁actions	-10.5852
30	-10.5861
▁deserialize	-10.5864
FIELD	-10.5868
▁Sample	-10.587
SharedPreference	-10.5888
21	-10.589
ms	-10.5896
▁Of	-10.5901
▁completed	-10.5903
▁development	-10.5904
▁constraint	-10.591
▁monitor	-10.5912
usr	-10.5922
▁bytecode	-10.5926
filename	-10.5931
let	-10.594
▁coordinate	-10.5944
Operator	-10.595
▁recommended	-10.5953
▁trick	-10.5954
▁building	-10.5957
Import	-10.596
Single	-10.596
▁handled	-10.596
▁represented	-10.5962
Op	-10.5963
▁leave	-10.5963
Plugin	-10.5966
Your	-10.5972
push	-10.5972
getField	-10.5982
▁img	-10.5993
UUID	-10.5995
endsWith	-10.5997
thread	-10.6
factory	-10.6006
▁LocalDate	-10.6025
Email	-10.6031
▁individual	-10.6032
TABLE	-10.6037
Layer	-10.6037
▁intended	-10.6037
getApplication	-10.6041
Cursor	-10.6046
rd	-10.6046
▁15	-10.6048
jackson	-10.6049
be	-10.6063
▁deployment	-10.6064
02	-10.6072
invokeLater	-10.6073
17	-10.6081
ers	-10.6084
Transformer	-10.609
▁decide	-10.6102
23	-10.6102
writer	-10.6107
▁delegate	-10.6108
Deprecated	-10.6112
▁depend	-10.6116
▁redirect	-10.6131
SQLException	-10.6131
▁minutes	-10.6133
top	-10.6142
▁recursive	-10.6143
▁speed	-10.6159
menu	-10.6159
GL	-10.6161
▁languages	-10.6166
▁embedded	-10.6169
▁separator	-10.6169
▁conf	-10.6171
custom	-10.6172
▁plain	-10.6172
▁generator	-10.6178
History	-10.6178
auth	-10.618
▁converter	-10.6181
▁questions	-10.6183
▁owner	-10.619
▁saved	-10.6192
background	-10.62
▁workaround	-10.6202
▁normally	-10.6206
▁hours	-10.6213
▁simpler	-10.6213
▁tries	-10.6217
em	-10.6232
▁concrete	-10.6233
▁JTextField	-10.6233
▁superclass	-10.6264
fx	-10.6264
▁fit	-10.6268
currentThread	-10.6268
▁EJB	-10.6268
▁clients	-10.6278
flatMap	-10.6281
Arg	-10.6286
▁Look	-10.6289
▁Go	-10.6289
▁scenario	-10.629
▁collector	-10.6299
▁adds	-10.6302
setDefaultClose	-10.6303
MetaData	-10.6309
arraycopy	-10.6316
▁describe	-10.6322
▁shape	-10.6323
▁ClassLoader	-10.6326
▁card	-10.6332
WEB	-10.6337
▁bucket	-10.6337
▁taking	-10.6347
▁replacement	-10.6348
getY	-10.6355
▁bitmap	-10.6361
parameter	-10.6361
Events	-10.6365
Follow	-10.6367
Shape	-10.6372
▁finished	-10.6376
▁solutions	-10.6378
▁learn	-10.6382
(0).	-10.6382
▁serialization	-10.639
▁posted	-10.6394
▁Task	-10.6396
namespace	-10.6398
▁Source	-10.6401
Bitmap	-10.6414
▁cms	-10.6416
▁serialized	-10.6425
40	-10.6426
setAttribute	-10.6428
▁couple	-10.643
▁formatted	-10.6432
(2,	-10.6432
Paths	-10.6433
setString	-10.6437
files	-10.6437
convert	-10.6437
▁smaller	-10.6441
▁10;	-10.6444
▁reads	-10.6447
▁ids	-10.6452
▁Float	-10.6456
▁pairs	-10.6463
go	-10.6463
Remote	-10.6466
MIN	-10.6469
▁OK	-10.648
▁JavaScript	-10.6482
▁modules	-10.6486
▁copied	-10.6493
▁asking	-10.6493
Supplier	-10.6496
Case	-10.6497
.*	-10.6498
co	-10.6498
Widget	-10.6499
Expr	-10.6501
Idx	-10.6502
▁UPDATE	-10.6504
▁JAVA	-10.6505
PROPERTY	-10.6505
▁Objects	-10.6515
Found	-10.6516
year	-10.6522
Db	-10.6525
▁supposed	-10.6525
▁credentials	-10.6537
common	-10.6539
lo	-10.654
▁sources	-10.6542
=\"	-10.6547
▁compilation	-10.6551
ity	-10.6566
ness	-10.6571
est	-10.6576
▁taken	-10.6576
types	-10.6579
▁commands	-10.6579
Credentials	-10.6581
just	-10.6581
counter	-10.6585
getConnection	-10.6586
XX	-10.6586
("[	-10.6587
▁prints	-10.6593
▁relation	-10.6597
▁preferred	-10.6602
▁Like	-10.6602
▁prev	-10.6605
single	-10.6609
▁artifact	-10.6617
database	-10.6618
Area	-10.6622
MODE	-10.6627
release	-10.6627
▁Other	-10.6628
getSource	-10.663
EXIT	-10.663
xsd	-10.6631
report	-10.664
Total	-10.6643
▁Dimension	-10.6651
▁setContentView	-10.6664
1",	-10.6668
provider	-10.6669
▁api	-10.6679
▁requirement	-10.6682
▁meant	-10.6687
Year	-10.6693
Home	-10.6702
▁AsyncTask	-10.6702
Network	-10.6705
policy	-10.6705
Vertex	-10.6707
▁indexes	-10.6716
category	-10.672
widget	-10.6726
getChildren	-10.6728
22	-10.6732
▁business	-10.6736
▁POST	-10.6738
▁digit	-10.6738
▁11	-10.674
edit	-10.6741
<?>>	-10.6742
▁hierarchy	-10.6743
▁Content	-10.6746
▁New	-10.6763
▁Solution	-10.6764
▁indeed	-10.6764
CENTER	-10.6765
mysql	-10.6769
▁Y	-10.6776
Empty	-10.678
less	-10.6791
100	-10.6806
▁guarantee	-10.6807
▁Basic	-10.6808
getAbsolutePath	-10.6808
Price	-10.6809
▁PrintWriter	-10.681
Desc	-10.681
▁he	-10.6816
LIST	-10.6818
▁ordered	-10.6823
clone	-10.6826
1<	-10.6826
▁manage	-10.6831
▁explanation	-10.6832
note	-10.6834
li	-10.6835
▁constructors	-10.6838
▁whenever	-10.6841
Edge	-10.6843
Html	-10.6845
▁larger	-10.6856
▁12	-10.6864
▁StringUtils	-10.6867
Term	-10.6872
protobuf	-10.6873
▁slow	-10.6873
Constraint	-10.6883
tools	-10.6885
Customer	-10.6886
GUI	-10.6888
Edit	-10.6888
▁persistence	-10.6891
▁OR	-10.6895
Namespace	-10.69
▁pane	-10.6904
xsl	-10.6905
goal	-10.6906
▁accessing	-10.691
▁May	-10.6913
▁JUnit	-10.6914
req	-10.6914
getParameter	-10.6915
▁drop	-10.6917
im	-10.692
Topic	-10.6922
▁2:	-10.6922
Required	-10.6923
queue	-10.6927
simple	-10.6928
▁32	-10.693
day	-10.6931
▁previously	-10.6934
▁edge	-10.6936
▁Table	-10.6943
▁"");	-10.6944
person	-10.6948
specific	-10.6949
▁displayed	-10.695
cl	-10.6953
RS	-10.6953
▁factor	-10.6954
FOLLOW	-10.6956
▁deploy	-10.696
Book	-10.6964
▁incorrect	-10.6967
19	-10.6971
rule	-10.6974
▁storing	-10.6977
HTTP	-10.6977
▁Student	-10.6998
Metric	-10.7004
▁focus	-10.7012
panel	-10.7013
▁alias	-10.7015
▁definitely	-10.7018
000	-10.7019
▁JavaFX	-10.703
Runtime	-10.7033
ns	-10.7035
▁views	-10.704
▁Action	-10.7041
ization	-10.7045
Arguments	-10.7052
▁wrote	-10.7055
▁Checks	-10.7057
IS	-10.7066
▁causes	-10.7067
▁uuid	-10.7068
▁4,	-10.7069
▁Linux	-10.7072
Use	-10.7076
▁worker	-10.7086
▁Mockito	-10.7087
Game	-10.7087
change	-10.7088
▁Invalid	-10.7089
▁1]	-10.7094
Sql	-10.7094
▁cur	-10.7096
tab	-10.7097
Display	-10.7099
▁media	-10.7104
span	-10.7104
cms	-10.7107
regex	-10.711
▁cost	-10.711
▁worth	-10.7111
Student	-10.712
▁startActivity	-10.7122
ChangeListener	-10.7128
▁Func	-10.7129
Per	-10.7132
▁clone	-10.7133
▁Consider	-10.714
▁easiest	-10.7147
▁compatible	-10.7148
▁Put	-10.7149
Cannot	-10.7151
▁Error	-10.7165
sc	-10.7166
timeout	-10.7167
▁Either	-10.7177
LayoutParams	-10.718
Non	-10.7185
REQUEST	-10.7186
▁anyone	-10.7186
ating	-10.7191
▁GET	-10.7191
▁duplicate	-10.7196
▁hit	-10.7197
con	-10.7198
HttpClient	-10.7201
▁}{@	-10.7204
Columns	-10.7206
Rate	-10.7207
▁helpful	-10.7209
▁perhaps	-10.7214
▁Both	-10.7214
icon	-10.7216
▁op	-10.7219
▁hex	-10.722
▁fire	-10.7221
Points	-10.7224
▁shutdown	-10.7228
▁sheet	-10.7228
▁indicate	-10.7231
▁Write	-10.724
▁&#63;	-10.7242
fileName	-10.7244
▁decode	-10.7246
▁concept	-10.7246
▁Most	-10.7247
▁0.0	-10.725
items	-10.7251
Res	-10.7252
','	-10.7253
repository	-10.7257
▁average	-10.7258
gen	-10.726
OR	-10.7261
Props	-10.7266
part	-10.7269
Alias	-10.7269
getLogger	-10.7275
="1.0"	-10.7275
LinearLayout	-10.7275
▁requirements	-10.7276
▁APIs	-10.7294
▁visit	-10.7294
setBackground	-10.7298
▁windows	-10.7299
font	-10.73
Methods	-10.7302
▁Graphics	-10.7312
iter	-10.7326
Period	-10.7326
▁accessible	-10.7332
▁integers	-10.7335
Constructor	-10.7335
ResourceAsStream	-10.7336
▁btn	-10.7336
▁dst	-10.7339
▁CPU	-10.7346
Library	-10.7349
▁volatile	-10.7355
EditText	-10.7357
sRequest	-10.7362
▁although	-10.737
▁years	-10.737
1"	-10.7381
draw	-10.7385
goals	-10.7385
60	-10.7388
setLayout	-10.7388
▁Socket	-10.7395
31	-10.7399
Plan	-10.7403
▁specifically	-10.7403
▁remaining	-10.741
mode	-10.7411
▁specifying	-10.7412
▁causing	-10.7414
▁tile	-10.7416
Visitor	-10.742
▁customer	-10.7423
proxy	-10.7425
▁javac	-10.7429
▁cmd	-10.7431
▁ok	-10.7432
back	-10.7438
Close	-10.7442
▁printing	-10.7442
Failure	-10.7446
void	-10.7448
▁populate	-10.7451
▁guaranteed	-10.7453
▁phone	-10.7454
cast	-10.7454
px	-10.7455
▁Boot	-10.7457
active	-10.7459
▁mouse	-10.746
▁idx	-10.746
Protocol	-10.7469
▁age	-10.747
findElement	-10.7475
▁Employee	-10.7475
▁temporary	-10.748
▁sounds	-10.7495
▁16	-10.7497
▁suspect	-10.7514
▁collections	-10.7516
Employee	-10.7519
▁exit	-10.7519
US	-10.7525
▁1000	-10.7526
xpath	-10.7534
services	-10.7536
[]>	-10.7541
▁demo	-10.7542
▁paintComponent	-10.7544
Cookie	-10.7546
Metrics	-10.7547
cell	-10.7555
off	-10.7556
▁Reference	-10.7558
pre	-10.756
Meta	-10.756
▁Rectangle	-10.7564
Agent	-10.7567
▁inheritance	-10.7571
▁JAXB	-10.7575
▁Fragment	-10.7576
▁Convert	-10.7585
separator	-10.7587
getMethod	-10.759
▁overhead	-10.7591
:\\	-10.7595
Distance	-10.7596
Permissions	-10.7597
▁Delete	-10.7598
▁symbol	-10.7599
intValue	-10.7599
▁methodName	-10.76
▁MainActivity	-10.7604
customer	-10.761
▁capacity	-10.7618
▁chunk	-10.7628
▁Bundle	-10.7632
▁happening	-10.7638
▁processor	-10.7652
ance	-10.7655
▁matched	-10.7658
▁readable	-10.7659
▁overriding	-10.7659
reference	-10.766
▁submit	-10.7669
ac	-10.7669
▁maintain	-10.767
▁Given	-10.7672
▁MySQL	-10.7673
▁snapshot	-10.7675
access	-10.7675
Binary	-10.7678
▁UUID	-10.7679
reset	-10.7687
▁rel	-10.7692
ra	-10.7692
Listeners	-10.7693
Available	-10.7693
▁places	-10.7693
book	-10.7697
MESSAGE	-10.7701
unit	-10.7708
concurrent	-10.7708
weight	-10.7709
Signature	-10.7709
utf	-10.771
ty	-10.7711
DTO	-10.7714
▁advantage	-10.7715
collection	-10.7718
getRequest	-10.7719
manager	-10.7726
▁sync	-10.7731
any	-10.7731
scan	-10.7734
256	-10.7736
▁Job	-10.7744
▁thought	-10.7745
▁pixel	-10.7748
sp	-10.7748
▁pointed	-10.7754
▁Call	-10.7761
▁agent	-10.7765
▁refresh	-10.7767
▁generation	-10.7772
short	-10.7777
Usage	-10.7779
▁DOM	-10.7779
cur	-10.778
JAVA	-10.7783
▁complicated	-10.7784
▁internally	-10.779
Return	-10.7801
Route	-10.7804
▁exclude	-10.7826
ter	-10.7827
▁priority	-10.7833
bundle	-10.7835
>>>	-10.784
JSONObject	-10.7843
ssl	-10.7844
▁putting	-10.785
persistence	-10.7857
fragment	-10.786
CONTENT	-10.786
amazonaws	-10.7862
▁pick	-10.7862
Dependency	-10.7864
HTML	-10.7865
Subscription	-10.7869
getSimpleName	-10.7874
notNull	-10.7884
▁production	-10.7891
▁older	-10.7898
▁limited	-10.7901
Could	-10.7903
dev	-10.7905
resolve	-10.7918
Amount	-10.7918
▁Entity	-10.7919
▁pages	-10.7934
▁swap	-10.7937
▁["	-10.7941
▁connected	-10.7943
▁JTable	-10.7944
▁restart	-10.7945
hashCode	-10.7949
READ	-10.7951
raw	-10.7956
ary	-10.7957
▁gson	-10.7959
▁SSL	-10.7965
▁delta	-10.7967
▁detect	-10.7969
settings	-10.7972
▁blocking	-10.7977
xFF	-10.7978
Global	-10.7983
WS	-10.7994
auto	-10.7999
▁IO	-10.8002
▁sometimes	-10.801
window	-10.801
▁numeric	-10.8013
▁accessed	-10.8016
center	-10.8017
▁Bitmap	-10.8017
getLength	-10.8018
▁difficult	-10.802
each	-10.8024
▁EE	-10.8025
▁5,	-10.8026
▁combination	-10.8029
▁rid	-10.8034
pool	-10.8036
▁documents	-10.8036
▁synchronization	-10.8037
▁signed	-10.8037
▁cipher	-10.8037
▁Where	-10.8038
▁located	-10.8038
▁subclasses	-10.8039
▁loops	-10.8042
▁JSF	-10.8046
decode	-10.8052
SET	-10.8054
▁explain	-10.8057
▁attr	-10.8059
▁ordering	-10.8061
deprecated	-10.8065
▁NULL	-10.8075
▁especially	-10.8076
eg	-10.8081
setLocation	-10.8081
Basic	-10.8085
Children	-10.8092
▁contract	-10.8092
▁JLS	-10.8094
▁'\	-10.8102
SERVICE	-10.8102
▁soon	-10.8105
▁""	-10.8113
▁core	-10.8114
ONE	-10.8117
Monitor	-10.8119
▁Gradle	-10.8123
1");	-10.8123
Registration	-10.8129
▁Page	-10.813
Tuple	-10.813
▁printed	-10.8131
▁chained	-10.8145
▁integration	-10.8158
▁canvas	-10.8162
cmd	-10.8167
Jar	-10.8183
pass	-10.8188
▁asynchronous	-10.8191
stack	-10.8192
▁executable	-10.8193
className	-10.8196
war	-10.8196
▁diff	-10.8198
NONE	-10.8201
Constant	-10.8201
▁FileReader	-10.8206
te	-10.8208
Declaration	-10.8217
▁quotes	-10.8218
Init	-10.8218
Rows	-10.8222
Criteria	-10.8226
▁Future	-10.8228
IO	-10.8228
▁logs	-10.8229
▁software	-10.8233
▁refers	-10.8235
▁moment	-10.8235
▁flags	-10.8238
▁precision	-10.8239
▁subscription	-10.8239
Services	-10.8241
▁IntelliJ	-10.8242
▁exec	-10.8245
▁video	-10.8245
before	-10.825
▁seeing	-10.8257
RE	-10.826
selected	-10.826
▁Assert	-10.826
ResponseBody	-10.8269
Multi	-10.8271
▁complexity	-10.8272
▁identity	-10.8274
appender	-10.8278
></	-10.8279
▁vs	-10.8279
▁inputStream	-10.8279
loop	-10.8288
Temp	-10.8288
btn	-10.8289
▁holds	-10.8292
Unknown	-10.8292
▁rate	-10.8294
▁his	-10.83
▁interested	-10.831
Final	-10.8315
▁experience	-10.8316
(...)"	-10.832
Bucket	-10.8328
Runner	-10.833
Prop	-10.8331
▁indices	-10.8336
▁Select	-10.8341
COLUMN	-10.8355
se	-10.8366
▁deprecated	-10.837
▁utility	-10.8371
▁updating	-10.8377
Me	-10.8378
END	-10.8379
Note	-10.8379
▁filters	-10.8381
Selected	-10.8382
Capacity	-10.8382
can	-10.8383
▁giving	-10.8386
▁management	-10.8387
▁debugging	-10.8391
▁Component	-10.8391
▁student	-10.8394
APPLICATION	-10.8395
ally	-10.8395
▁JScrollPane	-10.8396
Click	-10.8397
BigDecimal	-10.8398
Dataset	-10.8407
="/	-10.8415
▁finding	-10.8416
▁developer	-10.8418
Dispatcher	-10.8419
▁30	-10.8423
▁mask	-10.8427
Partition	-10.8428
▁overridden	-10.8429
Media	-10.8431
Back	-10.8434
▁constants	-10.8435
▁servers	-10.8438
round	-10.8439
▁dynamically	-10.8447
Collections	-10.8449
▁shift	-10.8455
Authorization	-10.8458
▁Does	-10.8468
scale	-10.8474
Sample	-10.8474
getAll	-10.8478
▁knows	-10.8481
▁4)	-10.8484
ToString	-10.8486
▁maps	-10.8487
27	-10.849
▁Scala	-10.8499
Attr	-10.8499
lastIndexOf	-10.85
▁Annotation	-10.85
UN	-10.8501
ByteBuffer	-10.8502
after	-10.8504
space	-10.8504
cas	-10.8509
▁piece	-10.8509
compiler	-10.8509
Common	-10.8512
original	-10.8515
begin	-10.8517
ator	-10.8517
pow	-10.8526
Assignment	-10.8527
batch	-10.8528
▁letters	-10.8536
▁MVC	-10.854
▁depth	-10.8541
▁serviceName	-10.8546
▁Stack	-10.8552
MouseEvent	-10.8555
Pre	-10.8557
▁power	-10.8559
▁Find	-10.8563
▁PDF	-10.8565
▁evaluate	-10.8565
▁archive	-10.8568
**	-10.8569
▁vertex	-10.8578
ab	-10.8579
Sort	-10.8579
folder	-10.8581
▁Event	-10.8588
down	-10.859
▁ds	-10.8597
▁Actually	-10.8601
Flag	-10.8602
player	-10.8603
START	-10.8603
TEXT	-10.8606
fs	-10.8606
schedule	-10.8607
toByteArray	-10.8608
▁suffix	-10.8608
over	-10.861
Rect	-10.861
]");	-10.8612
▁alpha	-10.8612
ResultSet	-10.8613
▁Q	-10.8622
Dto	-10.8628
MAP	-10.8633
▁behind	-10.8638
▁wasn	-10.8638
Bounds	-10.8639
Active	-10.864
▁capture	-10.8643
Scan	-10.8646
▁arbitrary	-10.8647
▁recover	-10.865
▁scroll	-10.865
▁comparing	-10.8655
▁entirely	-10.8656
Delegate	-10.8666
▁LinkedHashMap	-10.8671
▁computer	-10.8682
Auto	-10.8689
▁comp	-10.869
cursor	-10.8691
Down	-10.8692
Choice	-10.8694
05	-10.8698
isAssignableFrom	-10.8699
man	-10.8703
3)	-10.8705
▁TreeMap	-10.8711
▁CompletableFutu	-10.8716
▁perfectly	-10.8718
super	-10.872
Stop	-10.8724
▁defines	-10.8726
▁nor	-10.8727
STATE	-10.8735
▁delimiter	-10.8738
ok	-10.8742
▁applet	-10.8745
AS	-10.8753
Remove	-10.8755
Scale	-10.8756
▁mistake	-10.8758
Identity	-10.8766
Generic	-10.8772
▁anywhere	-10.8778
123	-10.8783
▁placed	-10.879
locale	-10.879
▁3;	-10.8791
▁installation	-10.8795
▁lazy	-10.88
am	-10.88
Ifc	-10.8802
▁BY	-10.8805
▁publish	-10.8807
▁providing	-10.8809
▁lead	-10.881
▁invoking	-10.8811
▁quote	-10.8812
▁hour	-10.8815
Specification	-10.8817
Top	-10.8821
▁24	-10.8823
▁war	-10.8824
▁GWT	-10.8826
toCharArray	-10.8827
▁plan	-10.8828
▁Unfortunately	-10.8828
Pointer	-10.883
▁cl	-10.8831
▁SWT	-10.8832
▁applies	-10.8835
phase	-10.8835
conn	-10.8835
jpg	-10.8836
▁ServiceCallback	-10.8841
Gen	-10.8846
Car	-10.8847
▁ready	-10.885
▁earlier	-10.8855
▁Start	-10.8855
06	-10.8858
▁handles	-10.8858
role	-10.8859
opt	-10.8862
▁dump	-10.8863
▁Statement	-10.8868
▁branch	-10.8872
▁ApiException	-10.8876
getSession	-10.888
▁slightly	-10.8881
-1)	-10.89
ParseException	-10.89
:/	-10.8903
ClientExecution	-10.8904
33	-10.8913
▁Are	-10.8919
Section	-10.8925
Ex	-10.8925
hi	-10.8925
ttpURLConnection	-10.8927
▁understanding	-10.893
▁reuse	-10.8931
ImageView	-10.8936
expected	-10.8936
Kind	-10.894
Tasks	-10.8945
▁alert	-10.8945
expression	-10.8946
▁naming	-10.8949
▁Car	-10.8957
▁atom	-10.8959
Progress	-10.8959
Transactional	-10.8965
featureID	-10.8965
MS	-10.8967
▁simplest	-10.8968
Admin	-10.8971
▁mention	-10.8973
]",	-10.8976
▁certainly	-10.8977
▁Guava	-10.8989
rpc	-10.8989
ting	-10.899
▁middle	-10.899
work	-10.8992
Management	-10.8994
rows	-10.8994
MONTH	-10.9003
▁flush	-10.9004
BagConstraints	-10.9005
▁converting	-10.9009
HttpRequest	-10.901
UP	-10.9011
▁tx	-10.9013
enable	-10.9018
Words	-10.9025
▁front	-10.9037
50	-10.9037
pdf	-10.904
▁myself	-10.9047
site	-10.9049
Month	-10.9052
}</	-10.9062
▁60	-10.9064
▁Search	-10.9065
keys	-10.9066
▁official	-10.907
ify	-10.9084
LONG	-10.9092
newBuilder	-10.9094
jboss	-10.9105
▁notice	-10.9106
26	-10.9111
makeText	-10.9111
NumberFormat	-10.9112
▁df	-10.9116
Rules	-10.912
▁datasource	-10.9125
ctx	-10.9126
Invocation	-10.9127
control	-10.9129
▁responses	-10.9131
▁CSS	-10.9135
\":	-10.9137
▁evaluated	-10.9141
▁ends	-10.9142
▁master	-10.9148
▁apps	-10.9148
Native	-10.9152
04	-10.9153
▁pipeline	-10.9154
▁worry	-10.9158
Split	-10.9162
▁classloader	-10.9163
▁Although	-10.9166
▁instructions	-10.917
▁cancel	-10.917
NULL	-10.9171
▁tells	-10.9172
ByteString	-10.9172
toUpperCase	-10.9172
▁retry	-10.9175
▁directories	-10.9175
elements	-10.9177
executeQuery	-10.918
▁constraints	-10.9181
ability	-10.9184
Master	-10.9186
▁figured	-10.9187
ian	-10.919
PREFIX	-10.9192
Complete	-10.9195
▁net	-10.9196
Diff	-10.9196
▁weight	-10.9199
found	-10.9201
POS	-10.9211
setColor	-10.9213
▁-=	-10.9214
notify	-10.9222
css	-10.9225
Can	-10.923
Annotations	-10.9232
DAO	-10.9233
Sync	-10.9242
socket	-10.9243
Marker	-10.9245
03	-10.9247
putExtra	-10.925
34	-10.9252
▁systems	-10.9271
▁Enum	-10.9273
▁Bar	-10.9274
export	-10.9276
▁schedule	-10.9277
Expected	-10.928
▁resolution	-10.9285
Schedule	-10.9295
mock	-10.9299
Connector	-10.9301
[1];	-10.9304
executions	-10.9305
▁Unicode	-10.9306
ize	-10.9307
fetch	-10.9309
▁saying	-10.9311
Encoder	-10.9313
▁runnable	-10.9321
▁blog	-10.9321
skip	-10.9321
1/	-10.9321
()];	-10.9325
MainActivity	-10.9327
Please	-10.9333
▁Ok	-10.9334
")));	-10.9346
metadata	-10.9359
▁Commons	-10.936
▁Item	-10.936
▁repaint	-10.9365
▁Buffered	-10.9369
▁Model	-10.9374
parseDouble	-10.9376
▁declaring	-10.9379
Tile	-10.938
ies	-10.9386
tion	-10.9387
inflate	-10.9393
transaction	-10.9394
▁processes	-10.9399
Trigger	-10.9403
getRuntime	-10.9403
Memory	-10.9406
▁Environment	-10.9407
▁>>>	-10.9413
▁extended	-10.9414
▁throwing	-10.9417
graph	-10.942
▁accepts	-10.9424
▁dependent	-10.9437
parser	-10.9446
Instances	-10.9449
Any	-10.945
▁em	-10.9452
)){	-10.946
▁scheme	-10.9467
Contact	-10.9475
fields	-10.9475
29	-10.9481
▁transfer	-10.9481
Chunk	-10.9486
▁fun	-10.9489
▁newValue	-10.9497
▁live	-10.95
global	-10.9507
▁searching	-10.9508
Symbol	-10.951
▁startup	-10.9511
Literal	-10.9512
cancel	-10.9514
▁effectively	-10.9516
▁Window	-10.9516
▁explained	-10.9517
▁devices	-10.9519
▁Property	-10.952
amp	-10.9523
▁anymore	-10.9524
Dimension	-10.9526
users	-10.9533
▁advice	-10.9535
children	-10.9549
MediaType	-10.9549
80	-10.9551
Chars	-10.9554
▁repeat	-10.9555
getContent	-10.9558
Bit	-10.9558
Core	-10.9559
▁patterns	-10.9568
=0	-10.9568
▁SO	-10.9569
▁cross	-10.957
play	-10.9572
▁pixels	-10.9578
09	-10.9589
▁workspace	-10.9589
▁latter	-10.9593
Print	-10.9594
Short	-10.9595
xff	-10.9596
Other	-10.9599
Axis	-10.96
▁animation	-10.9601
86	-10.9605
Preference	-10.9607
▁Generic	-10.9612
AL	-10.9614
▁Parse	-10.9616
▁retrieved	-10.9619
▁href	-10.9619
gwt	-10.962
Worker	-10.9622
▁Predicate	-10.9622
▁whitespace	-10.9627
▁origin	-10.9629
NS	-10.9629
nio	-10.9631
▁Game	-10.9636
Commit	-10.9636
▁Transaction	-10.9641
Inject	-10.9646
▁series	-10.9652
▁compared	-10.9657
rate	-10.9658
[3]	-10.966
▁camera	-10.966
Transition	-10.9661
Animation	-10.9663
getObject	-10.9663
merge	-10.9665
-8"?>	-10.9671
ext	-10.9675
▁Grid	-10.9675
▁curr	-10.9678
▁secure	-10.97
▁renderer	-10.9703
um	-10.9704
▁Replace	-10.9712
Subject	-10.9712
▁produces	-10.9715
▁th	-10.9724
...)	-10.9732
Comment	-10.9744
SHORT	-10.9748
ByteArray	-10.9753
▁inputs	-10.9753
Drawable	-10.9754
▁round	-10.9757
Span	-10.9759
▁mvn	-10.9761
tx	-10.9763
Created	-10.977
Tokens	-10.9774
▁instantiated	-10.9777
▁country	-10.9777
▁metrics	-10.9778
Bits	-10.978
▁CharSequence	-10.978
▁alt	-10.9784
Mask	-10.9786
▁cls	-10.9788
month	-10.9789
pe	-10.9792
▁sorting	-10.9796
_2	-10.98
unlock	-10.9803
▁Converts	-10.9807
▁plus	-10.9807
processor	-10.9811
▁moving	-10.9813
▁Be	-10.9814
Millis	-10.9814
▁co	-10.9819
adapter	-10.9819
▁addresses	-10.9821
▁hidden	-10.9822
>>()	-10.9823
TableModel	-10.9824
▁ended	-10.9824
library	-10.9825
▁5;	-10.9825
▁Hence	-10.9826
▁distinct	-10.9829
Save	-10.983
▁iterating	-10.9836
setSize	-10.9841
▁axis	-10.9843
axis	-10.9845
PI	-10.9846
▁gradle	-10.9847
▁AfplibPackage	-10.9855
▁rotation	-10.9855
▁Animal	-10.9859
▁Step	-10.9863
▁FileWriter	-10.9867
▁rejected	-10.9869
account	-10.987
ero	-10.9873
2));	-10.9875
flow	-10.988
▁attached	-10.9885
▁identify	-10.9893
two	-10.9894
▁Preconditions	-10.9894
▁developers	-10.9899
▁Should	-10.9904
▁comma	-10.9906
Packet	-10.9909
▁transactions	-10.9916
▁scheduler	-10.9922
▁marked	-10.9926
Static	-10.9927
Insert	-10.9932
▁Click	-10.9938
▁inserted	-10.994
▁qualified	-10.9941
lookup	-10.9942
▁suggestion	-10.9943
rest	-10.9945
Marshaller	-10.995
▁pointing	-10.995
▁team	-10.9952
▁obviously	-10.9953
▁Int	-10.9955
▁clearly	-10.9959
▁Cloud	-10.9964
▁week	-10.9965
ationException	-10.9969
▁writes	-10.9971
pr	-10.9974
▁persist	-10.9976
Owner	-10.9977
Center	-10.9996
prepareStatement	-11.0005
▁Language	-11.0006
▁fieldName	-11.0011
JoinColumn	-11.0011
reflect	-11.0013
▁repo	-11.0017
Archive	-11.0022
▁HttpClient	-11.0022
ling	-11.0024
parameters	-11.0029
Gateway	-11.0033
Payload	-11.0035
▁resolver	-11.0038
▁defining	-11.0038
▁iterable	-11.0039
ut	-11.005
BigInteger	-11.005
▁metric	-11.0053
▁labels	-11.0058
such	-11.0067
CharSequence	-11.0068
▁website	-11.007
▁obvious	-11.0077
0.	-11.0078
Observer	-11.008
▁filtered	-11.0082
Allowed	-11.0082
▁ns	-11.0083
Principal	-11.0084
▁timezone	-11.0085
▁Repository	-11.0087
ServletException	-11.0089
▁widget	-11.009
Missing	-11.0095
▁phase	-11.0097
▁rectangle	-11.0098
▁terminal	-11.0101
▁Authentication	-11.0105
meta	-11.011
▁collect	-11.0111
▁expects	-11.0116
OS	-11.0118
df	-11.012
alias	-11.0124
getClassLoader	-11.0127
▁necessarily	-11.0127
▁feel	-11.0129
▁unknown	-11.0129
▁Every	-11.0145
▁radius	-11.0147
▁car	-11.0148
SC	-11.0148
names	-11.0149
▁receiver	-11.0151
▁candidate	-11.0152
etc	-11.0152
▁half	-11.0154
▁rely	-11.016
Lookup	-11.0161
▁consume	-11.0162
condition	-11.0164
cd	-11.017
▁Python	-11.0173
▁accepted	-11.0178
▁purposes	-11.0179
▁Azure	-11.0182
something	-11.0185
ear	-11.0187
▁Standard	-11.019
Demo	-11.019
move	-11.0194
▁operating	-11.0197
▁8,	-11.0202
StringBuilder	-11.0204
Variables	-11.0204
▁exchange	-11.0209
=1;	-11.0209
08	-11.0209
backtracking	-11.0211
MyClass	-11.0212
▁EntityManager	-11.0217
destination	-11.0219
ListView	-11.0225
▁DEFAULT	-11.0226
▁Filter	-11.0228
ServletContext	-11.023
▁Pair	-11.023
ROOT	-11.0232
pop	-11.0243
==0	-11.0244
Direction	-11.0247
cc	-11.0248
▁reached	-11.0249
Language	-11.0252
▁angle	-11.0253
Catalog	-11.0258
▁SE	-11.0261
▁1.5	-11.0262
▁disabled	-11.0265
SECONDS	-11.0273
SE	-11.0274
▁stores	-11.0277
▁4;	-11.0279
▁home	-11.028
▁XPath	-11.028
▁suitable	-11.0282
▁mutable	-11.0283
FS	-11.0285
mp	-11.0286
2:	-11.0288
Lines	-11.0296
FLAG	-11.0301
▁distribution	-11.0313
Second	-11.0315
inner	-11.032
ca	-11.0321
Raw	-11.0324
0000	-11.0325
Chart	-11.0332
▁extending	-11.0332
▁released	-11.0334
▁selector	-11.0335
YEAR	-11.0339
▁floating	-11.0345
▁replacing	-11.0345
TRUE	-11.035
cat	-11.0352
price	-11.0357
▁JNI	-11.0359
▁border	-11.0359
controller	-11.0361
99	-11.0365
shape	-11.0366
▁specifies	-11.0368
▁lets	-11.037
▁geometry	-11.037
▁moved	-11.0372
▁Customer	-11.0373
Debug	-11.0373
addr	-11.0375
STATUS	-11.0376
▁Scheduler	-11.0378
▁transformation	-11.0381
▁dot	-11.0382
Contents	-11.0382
▁convention	-11.0383
▁javascript	-11.0384
▁red	-11.0387
▁Product	-11.0389
5,	-11.0394
▁keystore	-11.0394
getStatus	-11.0396
validation	-11.0397
▁Javadoc	-11.0398
comp	-11.0398
Success	-11.04
▁expand	-11.0404
-8");	-11.0404
mo	-11.0406
il	-11.0407
48	-11.0408
SdkInternal	-11.0408
▁keyboard	-11.0409
▁goal	-11.0409
ne	-11.0415
▁Sun	-11.0416
Upload	-11.0416
▁SwingUtilities	-11.0417
▁lots	-11.0422
▁encryption	-11.0422
▁author	-11.0427
Export	-11.0429
ence	-11.0431
ge	-11.0433
fa	-11.0435
▁guide	-11.0438
ps	-11.0439
Numbers	-11.044
Do	-11.0441
▁Problem	-11.0441
Cost	-11.0443
▁Byte	-11.0443
Weight	-11.0449
▁Callable	-11.0452
nitro	-11.0453
▁dataset	-11.0454
▁asked	-11.0455
▁came	-11.0463
▁JAX	-11.0471
▁Matrix	-11.0474
▁Expression	-11.0478
▁contact	-11.0483
Site	-11.0486
Persistence	-11.0488
previous	-11.049
ExecutorService	-11.0493
▁responseFields	-11.0502
▁dates	-11.0502
▁newly	-11.051
results	-11.0515
▁logged	-11.0521
Thing	-11.0522
step	-11.0525
enabled	-11.0525
▁impossible	-11.0526
▁Ant	-11.0529
="#{	-11.053
▁recursion	-11.0533
▁Input	-11.0536
▁showing	-11.0537
Statistics	-11.0539
▁formatting	-11.0541
▁inflater	-11.0544
TOKEN	-11.0544
▁whereas	-11.055
NUMBER	-11.0552
(2);	-11.0555
▁secret	-11.0555
Theme	-11.0556
spec	-11.056
Conf	-11.0561
▁incoming	-11.0562
▁generating	-11.0568
BASE	-11.0568
▁appends	-11.0568
topic	-11.057
Flags	-11.0572
qPath	-11.0573
47	-11.058
▁JsonObject	-11.0581
3);	-11.0581
FF	-11.0591
▁improve	-11.0592
▁obtained	-11.0593
▁ip	-11.0594
▁sentence	-11.06
LOGGER	-11.0606
Receiver	-11.0606
Transform	-11.061
2",	-11.061
▁getters	-11.0611
▁padding	-11.0611
▁serializer	-11.0615
▁concurrent	-11.0617
▁suppose	-11.0625
▁dont	-11.0626
▁50	-11.0628
▁past	-11.063
▁turns	-11.0632
Appender	-11.0635
pl	-11.0635
▁odd	-11.064
authentication	-11.0642
▁essentially	-11.0645
OBJECT	-11.0647
▁configurations	-11.0648
▁CmsResource	-11.0655
▁lifecycle	-11.0661
▁packet	-11.0681
28	-11.0681
(1));	-11.0682
▁belongs	-11.0684
Paint	-11.0684
Attachment	-11.069
▁prior	-11.0693
64.	-11.0697
Over	-11.0698
▁infinite	-11.0711
▁entered	-11.0713
▁four	-11.0714
▁ImageIcon	-11.0715
▁benefit	-11.0716
Atom	-11.0719
▁TCP	-11.0724
▁iv	-11.0729
▁TreeSet	-11.0729
▁separated	-11.0734
Audio	-11.0735
▁overflow	-11.0735
sorted	-11.0737
WebElement	-11.0742
PARAM	-11.0745
▁Font	-11.075
wait	-11.0751
▁consistent	-11.0752
DS	-11.0755
▁ExecutorService	-11.0759
▁repeated	-11.076
▁prepare	-11.0763
▁trans	-11.0765
▁identical	-11.0768
lat	-11.0769
▁casting	-11.0773
▁clicked	-11.0774
requireNonNull	-11.0774
even	-11.0777
Collector	-11.0777
▁somehow	-11.0779
variable	-11.0786
▁square	-11.0788
▁subsequent	-11.0789
▁signal	-11.079
sequence	-11.0791
▁operators	-11.0793
▁assumes	-11.0793
jpa	-11.0798
▁drawing	-11.0799
▁ImageIO	-11.08
prev	-11.0803
1.0	-11.0804
WITH	-11.0808
ping	-11.0811
Factor	-11.0818
encoding	-11.0821
getOutputStream	-11.0822
validator	-11.0823
Seq	-11.0824
▁affect	-11.0829
Pass	-11.0829
▁cb	-11.0829
Ip	-11.0831
▁forget	-11.0831
▁rename	-11.0832
ff	-11.0835
▁Scene	-11.0842
initialize	-11.0845
▁analysis	-11.0845
dest	-11.0848
▁rendering	-11.0851
45	-11.0862
IndexOutOfBounds	-11.0863
FilePath	-11.0864
▁Simply	-11.0864
dialog	-11.0869
cluster	-11.0869
▁Play	-11.0875
na	-11.0875
setTime	-11.0877
Scroll	-11.0881
▁Option	-11.0882
KeyEvent	-11.0883
▁mail	-11.0886
▁numberOf	-11.0892
ISO	-11.0894
▁tuple	-11.0895
▁leading	-11.0897
Put	-11.0906
▁opened	-11.0908
▁allocated	-11.0909
▁copying	-11.0914
▁10,	-11.0921
▁Good	-11.0922
1:	-11.0922
▁typed	-11.0924
AsString	-11.0924
▁JMS	-11.0926
engine	-11.093
▁combine	-11.0936
0.0	-11.0936
▁modification	-11.0936
Processing	-11.0937
▁Void	-11.094
CS	-11.0943
59	-11.0947
LINE	-11.0949
▁upgrade	-11.0951
endpoint	-11.0952
▁introduced	-11.0952
Show	-11.0952
▁audio	-11.0958
▁neither	-11.0958
?)	-11.0959
onedDateTime	-11.0966
▁Right	-11.0967
▁sleep	-11.0972
▁gbc	-11.098
Deserializer	-11.098
▁Jersey	-11.0982
▁ClassNotFound	-11.0983
▁logical	-11.0983
ue	-11.0984
score	-11.0985
▁Notification	-11.0986
▁LocalDateTime	-11.0987
tomcat	-11.0989
▁implicit	-11.0996
Visible	-11.0996
Join	-11.0999
zA	-11.0999
▁escaped	-11.1011
▁transformer	-11.1013
"};	-11.1014
extension	-11.1021
▁formula	-11.1022
▁documented	-11.1024
▁marker	-11.1027
1=	-11.1034
attributes	-11.1041
▁variant	-11.1045
▁ISO	-11.1048
--)	-11.1049
▁jsonObject	-11.105
EMPTY	-11.1052
▁visibility	-11.1052
▁stated	-11.1062
▁compatibility	-11.1063
▁userId	-11.1064
ELEMENT	-11.1066
constraint	-11.1074
Answer	-11.1075
mark	-11.1085
IllegalArgument	-11.1088
▁preference	-11.1089
dom	-11.109
▁AS	-11.1094
Structure	-11.1095
▁functional	-11.1102
grammarAccess	-11.1104
Filename	-11.1106
[0],	-11.1107
▁major	-11.111
▁interesting	-11.1111
Days	-11.1112
FORMAT	-11.1118
▁inherited	-11.1118
Conversion	-11.112
****************	-11.1121
RequestContext	-11.1124
]+	-11.1125
card	-11.1126
ized	-11.1127
▁Will	-11.1138
▁unnecessary	-11.1149
)*	-11.1155
Decoder	-11.1155
▁history	-11.1156
argument	-11.1158
ds	-11.1158
▁regardless	-11.1159
▁significant	-11.1164
▁Short	-11.1166
feature	-11.1166
shutdown	-11.1166
▁procedure	-11.1167
complete	-11.1169
constructor	-11.1171
▁encrypted	-11.1176
▁opening	-11.1181
▁"\"	-11.1188
Secret	-11.119
INDEX	-11.1192
ARRAY	-11.1198
▁BufferedWriter	-11.1198
memory	-11.1199
▁accordingly	-11.12
JS	-11.12
getResources	-11.1202
Enable	-11.1202
ld	-11.1202
Trace	-11.1203
▁Without	-11.1203
Transport	-11.1213
▁instruction	-11.1214
DEBUG	-11.1216
▁JBoss	-11.1221
CREATE	-11.1223
▁CSV	-11.1224
▁ImageView	-11.1228
▁sp	-11.1232
...");	-11.1232
▁generates	-11.1232
mod	-11.1236
▁UnsupportedOper	-11.1238
Envelope	-11.1241
▁equality	-11.1245
success	-11.1248
De	-11.1254
Running	-11.1261
ate	-11.1261
▁exp	-11.1262
props	-11.1262
▁IDs	-11.1268
place	-11.1275
▁opinion	-11.1284
▁Demo	-11.1287
render	-11.1288
Separator	-11.1288
IF	-11.129
media	-11.1298
Parts	-11.13
▁DataSource	-11.1301
▁ran	-11.1305
▁Based	-11.1306
isDirectory	-11.1309
ATION	-11.131
operation	-11.132
▁getAll	-11.1321
Artifact	-11.1327
Slot	-11.1327
Head	-11.1327
▁treat	-11.1329
Full	-11.133
▁Removes	-11.1332
addListener	-11.1332
▁propertyName	-11.1332
uuid	-11.1334
▁coming	-11.1336
▁coding	-11.1337
available	-11.1343
2");	-11.1348
▁feed	-11.1352
full	-11.1353
Buf	-11.1353
▁responsible	-11.1354
▁Command	-11.1354
▁attach	-11.1357
ma	-11.1357
yes	-11.1364
vm	-11.1365
▁recent	-11.1366
▁ele	-11.1371
▁SOAP	-11.1374
▁mappings	-11.1374
90	-11.1375
ir	-11.1379
Deployment	-11.1379
▁projection	-11.1383
▁GL	-11.1384
▁expr	-11.1384
▁newer	-11.1385
▁Account	-11.1386
Cipher	-11.1388
[1]);	-11.139
▁offer	-11.1395
lines	-11.1397
getMax	-11.1398
▁prepared	-11.1401
▁World	-11.1403
▁caching	-11.1408
cert	-11.1409
▁Specification	-11.141
METHOD	-11.1412
getEntity	-11.1415
▁Multi	-11.1417
serviceName	-11.1419
concat	-11.1419
▁seed	-11.1421
▁transport	-11.1422
▁luck	-11.143
▁prompt	-11.1432
Delay	-11.1433
Android	-11.1434
▁elem	-11.1434
▁plugins	-11.1435
▁determined	-11.1435
bat	-11.1438
▁rand	-11.1438
setTitle	-11.1439
▁allowing	-11.1441
Producer	-11.1443
▁attrs	-11.1447
Actions	-11.145
▁independent	-11.1455
eq	-11.1457
▁reply	-11.1461
}")	-11.1466
spi	-11.1469
CP	-11.147
▁?>	-11.1471
▁frameworks	-11.1472
Locator	-11.1473
encoded	-11.1476
▁producer	-11.1479
rt	-11.148
executeUpdate	-11.148
▁HH	-11.1484
▁communication	-11.1487
▁14	-11.1488
getAnnotation	-11.1488
▁Perhaps	-11.1489
ViewHolder	-11.1493
▁ListView	-11.1494
▁confusing	-11.1496
timestamp	-11.1496
▁JS	-11.1504
▁downloaded	-11.1505
▁possibility	-11.1507
csv	-11.1521
▁ASCII	-11.1523
Behavior	-11.1525
words	-11.1526
▁minute	-11.1538
▁units	-11.1544
(0));	-11.1549
▁careful	-11.1557
JPanel	-11.1558
▁tail	-11.1559
▁Looks	-11.1559
▁setters	-11.156
▁Parent	-11.1568
▁encountered	-11.1569
▁synchronize	-11.1571
Initializer	-11.1575
Rest	-11.1579
DE	-11.158
Video	-11.1582
exclude	-11.1582
▁POJO	-11.1584
▁Mac	-11.1586
▁hide	-11.1588
▁constructed	-11.1593
▁lost	-11.1594
▁Studio	-11.1595
▁chart	-11.1597
low	-11.1599
pt	-11.16
▁blank	-11.1602
Contract	-11.1605
PROJECT	-11.1608
fromJson	-11.161
real	-11.1611
▁manual	-11.1613
tokens	-11.1621
getSize	-11.1624
▁js	-11.1627
DataType	-11.1629
Codec	-11.163
DELETE	-11.1631
Iter	-11.1632
doubleValue	-11.1633
▁took	-11.1634
▁jobs	-11.1637
Lib	-11.1642
▁scene	-11.1642
▁life	-11.1643
NET	-11.1647
▁ORDER	-11.1649
self	-11.165
Windows	-11.1651
fsp	-11.1652
▁completion	-11.1655
getUser	-11.1657
▁Move	-11.1659
▁strongly	-11.166
cs	-11.166
FINE	-11.1665
▁explains	-11.1669
setDefault	-11.1669
APP	-11.167
▁injected	-11.1672
▁Lists	-11.1672
▁expensive	-11.1675
▁eventually	-11.1678
]]	-11.1681
answer	-11.1686
▁press	-11.1687
Seconds	-11.1688
▁saving	-11.169
ous	-11.1691
▁mod	-11.1694
PAGE	-11.1696
▁couldn	-11.1699
▁200	-11.1701
▁OAuth	-11.1701
META	-11.1702
▁executes	-11.1705
MB	-11.171
platform	-11.1712
Extra	-11.1713
▁"."	-11.1714
language	-11.1717
Redirect	-11.1719
configure	-11.1727
▁extensions	-11.1727
▁chance	-11.1729
▁visitor	-11.1731
ML	-11.1735
getElement	-11.1736
ig	-11.1741
Username	-11.1747
ta	-11.1751
▁expecting	-11.1756
Exchange	-11.1756
points	-11.1756
▁persistent	-11.1759
▁Depending	-11.1759
▁3.0	-11.1763
jre	-11.1764
Attempt	-11.1766
Errors	-11.1766
▁listed	-11.1772
protected	-11.1772
▁Single	-11.1783
▁Groovy	-11.1787
ted	-11.1787
BufferedReader	-11.1795
▁NumberFormat	-11.1797
Setting	-11.1799
TextField	-11.1802
▁doSomething	-11.1803
Rectangle	-11.1807
▁cat	-11.1809
ak	-11.1809
▁Charset	-11.1817
▁programs	-11.1817
member	-11.182
▁deployed	-11.1821
Cancel	-11.1822
because	-11.1826
callback	-11.1826
▁compareTo	-11.1826
CACHE	-11.1827
Phone	-11.183
▁talking	-11.1832
Finder	-11.1837
39	-11.1839
NODE	-11.184
▁potentially	-11.1841
setId	-11.1844
+1	-11.1847
▁annotate	-11.1849
▁Sub	-11.185
dispose	-11.1857
▁slot	-11.1858
amount	-11.1858
▁collected	-11.1859
▁validator	-11.1861
▁party	-11.1863
▁adjust	-11.1863
Send	-11.1869
term	-11.1873
nextToken	-11.1875
WRITE	-11.1876
▁merged	-11.1879
▁implicitly	-11.1882
▁jdk	-11.1882
)?	-11.1882
▁Label	-11.1882
Has	-11.1893
▁MozuClient	-11.1897
▁DocumentBuilder	-11.1898
▁Access	-11.1898
getNext	-11.1908
la	-11.1909
▁quickly	-11.1915
device	-11.1917
poll	-11.1917
▁translate	-11.1918
35	-11.192
▁3.	-11.192
Entities	-11.1921
Move	-11.1924
including	-11.1924
Charset	-11.1928
install	-11.1928
rec	-11.193
Named	-11.1932
TypeName	-11.1936
Connect	-11.1937
Sets	-11.1939
▁unable	-11.1939
{}	-11.1955
ClassNotFound	-11.1966
remote	-11.197
▁cycle	-11.1974
=1	-11.1977
▁employee	-11.1977
HH	-11.1978
▁company	-11.1982
Recognition	-11.1982
NEW	-11.1984
▁appended	-11.1985
Render	-11.1985
1000	-11.1986
▁pull	-11.1988
▁combined	-11.1993
▁hint	-11.2001
ja	-11.2003
▁CountDownLatch	-11.2007
▁composite	-11.2007
▁onto	-11.2013
Hex	-11.2016
▁themselves	-11.2018
ls	-11.2018
▁8)	-11.202
▁circle	-11.2022
▁detailed	-11.2023
ById	-11.2026
grid	-11.2028
RESOURCE	-11.2036
2.0	-11.2042
zero	-11.2043
▁divide	-11.205
▁Transformer	-11.2053
▁popup	-11.2053
isValid	-11.2062
▁13	-11.2064
▁primaryStage	-11.2066
▁Recognition	-11.2069
▁listen	-11.2071
▁locking	-11.2072
parts	-11.2076
▁absolutely	-11.2077
Logging	-11.2078
▁authorization	-11.2079
javac	-11.2081
▁evaluation	-11.2086
42	-11.2091
▁1.6	-11.2096
▁NoSuch	-11.2099
SSL	-11.2101
xxx	-11.2102
▁holding	-11.2104
("");	-11.2106
▁dataSource	-11.2106
▁reach	-11.2112
▁Anyway	-11.2115
▁modifying	-11.2122
Modifier	-11.2123
Spring	-11.2123
▁cells	-11.2125
act	-11.2125
▁EditText	-11.2127
]*	-11.2131
copyOf	-11.2133
▁ProcessBuilder	-11.2138
▁GridLayout	-11.2139
getActivity	-11.2141
200	-11.2142
▁broken	-11.2143
PER	-11.2144
▁dealing	-11.2151
OP	-11.2153
UPDATE	-11.2154
▁Un	-11.2154
(...);	-11.2156
getFile	-11.2162
▁webapp	-11.2166
Series	-11.2166
▁Player	-11.2167
▁Firebase	-11.2175
▁modifier	-11.2175
Alert	-11.2179
setHeader	-11.218
getJSONObject	-11.2182
▁chosen	-11.2186
▁performing	-11.2189
▁Describe	-11.219
▁Below	-11.2193
▁wildcard	-11.2196
Records	-11.2199
sib	-11.22
hadoop	-11.2206
▁ioe	-11.2207
▁"[	-11.2207
▁pending	-11.2207
>");	-11.2211
▁summary	-11.2212
▁ResponseEntity	-11.2212
Operations	-11.2216
▁0.5	-11.2216
▁Adding	-11.2217
("#	-11.2218
mvc	-11.222
Extractor	-11.2224
▁derived	-11.223
▁currency	-11.2237
▁operand	-11.2239
evaluate	-11.224
▁attempting	-11.2244
▁tableName	-11.2246
upload	-11.2249
▁[...]	-11.2252
+1)	-11.2254
}{@	-11.2254
Parse	-11.226
Matches	-11.2261
Background	-11.2264
dc	-11.2265
Bus	-11.2267
▁formats	-11.2271
Border	-11.2273
createQuery	-11.2274
Loop	-11.2281
xs	-11.2284
▁initializer	-11.2285
▁Tree	-11.2288
should	-11.2289
▁dimensions	-11.229
Components	-11.2292
Serializable	-11.2293
▁True	-11.2294
Creator	-11.2298
▁Attribute	-11.2301
sqrt	-11.2303
Backup	-11.2303
xx	-11.2305
MenuItem	-11.2306
(3)	-11.2312
SHA	-11.2313
game	-11.2314
setEnabled	-11.2324
emp	-11.2325
▁digest	-11.2325
SERVER	-11.2328
Images	-11.2331
Specific	-11.2333
Cert	-11.2337
AND	-11.2341
▁|=	-11.2343
▁span	-11.2345
ri	-11.2345
CONFIG	-11.2347
▁threshold	-11.2353
Dependencies	-11.2356
▁---	-11.2356
▁OpenCms	-11.2356
▁blob	-11.2357
ES	-11.2358
Serialization	-11.2361
Binder	-11.2364
▁Queue	-11.2365
▁IllegalAccess	-11.2368
07	-11.2368
Credential	-11.237
▁differences	-11.237
ical	-11.2373
▁25	-11.2374
▁definitions	-11.2375
▁went	-11.2378
▁backend	-11.238
Suffix	-11.2383
+)	-11.2386
screen	-11.2391
▁mid	-11.2391
▁partial	-11.2392
500	-11.2397
2"	-11.2397
jersey	-11.2398
▁architecture	-11.2399
▁magic	-11.2401
▁(0	-11.2401
▁structures	-11.2402
▁differently	-11.2402
▁fairly	-11.2403
▁Enumeration	-11.2406
Algorithm	-11.2409
SS	-11.2421
Bound	-11.2421
▁throwable	-11.2425
Env	-11.2426
▁usual	-11.243
Pipeline	-11.2432
▁dis	-11.2433
Escape	-11.2436
▁locations	-11.2436
Singleton	-11.2438
RELEASE	-11.2445
▁deep	-11.245
ret	-11.2451
36	-11.2451
▁subset	-11.2453
That	-11.2455
owner	-11.2456
▁unexpected	-11.2456
md	-11.2457
▁Platform	-11.2458
getDate	-11.246
Threshold	-11.2461
▁intermediate	-11.2463
▁license	-11.2466
Completion	-11.2467
▁DecimalFormat	-11.247
curr	-11.2475
Bind	-11.2479
fasterxml	-11.2485
ep	-11.2495
>>();	-11.2496
Tracker	-11.2499
▁pop	-11.25
Observable	-11.2504
▁(!(	-11.2505
▁Internal	-11.2506
statement	-11.2507
▁attempts	-11.2512
▁concurrency	-11.2515
Accept	-11.2517
(((	-11.252
Con	-11.2524
▁principal	-11.2531
▁preferences	-11.2534
▁calculated	-11.2538
images	-11.2539
▁retval	-11.2539
▁optimization	-11.254
▁Its	-11.2541
44	-11.2542
listFiles	-11.2544
Filters	-11.2545
RED	-11.2549
▁1));	-11.255
▁online	-11.2551
om	-11.2552
▁7,	-11.2558
▁rendered	-11.256
phone	-11.2562
(3,	-11.2563
visit	-11.2569
▁interceptor	-11.2571
shared	-11.2577
")){	-11.2577
Aware	-11.2583
Transfer	-11.2585
gl	-11.2592
AM	-11.2592
ml	-11.2598
▁rect	-11.2599
Exists	-11.2601
ba	-11.2601
▁desc	-11.2602
Priority	-11.2602
▁ViewGroup	-11.2603
getTarget	-11.2607
▁doInBackground	-11.2614
▁Next	-11.2614
RelativeLayout	-11.2616
bb	-11.2619
▁enclosing	-11.2622
▁tv	-11.2625
▁ifc	-11.2636
Describe	-11.264
▁separately	-11.2642
getIndex	-11.2647
company	-11.2651
JsonProperty	-11.2651
▁Cell	-11.2652
▁positions	-11.2657
▁Two	-11.266
▁association	-11.2661
TimeFormatter	-11.2665
▁completes	-11.267
▁linear	-11.2672
▁500	-11.2674
▁white	-11.2677
▁happened	-11.2678
Refresh	-11.268
▁sound	-11.2681
Xmx	-11.27
▁performs	-11.2708
▁debugger	-11.2709
▁calculation	-11.2724
DIR	-11.2725
Tx	-11.2728
▁dimension	-11.2729
▁rewrite	-11.273
gc	-11.2732
▁discussion	-11.2732
▁admin	-11.2738
ME	-11.274
▁wrapping	-11.2743
▁Executors	-11.2744
▁indicating	-11.2745
Depth	-11.2746
▁Singleton	-11.2746
▁Found	-11.2746
▁Display	-11.2747
▁Child	-11.2748
▁gc	-11.2752
valid	-11.2755
LocalDate	-11.2759
▁dispatch	-11.276
SP	-11.2764
Exit	-11.2765
▁remain	-11.2766
▁classLoader	-11.2766
lab	-11.2768
▁encrypt	-11.2768
nodes	-11.2771
resp	-11.2773
eNS	-11.2774
ified	-11.2779
defined	-11.2781
▁today	-11.2782
TS	-11.2785
▁potential	-11.2792
▁Consumer	-11.2792
Sheet	-11.2792
Camera	-11.2796
▁JTextArea	-11.2797
▁Answer	-11.2799
▁addr	-11.2801
Share	-11.2806
▁ago	-11.2807
▁trouble	-11.2808
▁counts	-11.281
cos	-11.2812
▁imported	-11.2815
▁huge	-11.2816
Payment	-11.2817
▁handlers	-11.2822
getContentPane	-11.2822
▁64	-11.2825
An	-11.283
izing	-11.2834
▁gen	-11.2835
▁10)	-11.2843
FragmentManager	-11.2843
▁respect	-11.2844
ap	-11.2846
Present	-11.2847
▁Static	-11.2848
plus	-11.2848
▁MAX	-11.285
▁bigger	-11.285
ea	-11.2851
isPresent	-11.2852
_3>	-11.2852
▁board	-11.2853
▁Constructor	-11.2855
getBundle	-11.2856
▁keeping	-11.286
▁registration	-11.2861
car	-11.2874
Retry	-11.2874
ST	-11.2877
▁resize	-11.2882
▁defaults	-11.2882
▁scheduled	-11.2887
▁closure	-11.2887
▁overwrite	-11.2887
}">	-11.2895
GROUP	-11.2897
Workflow	-11.2901
▁conditional	-11.2902
▁unsigned	-11.2904
ru	-11.2907
more	-11.291
Branch	-11.2913
▁DAO	-11.2915
Implementation	-11.2916
▁Tuple	-11.2916
FactoryBean	-11.2918
▁Download	-11.2918
▁TABLE	-11.2919
mi	-11.2926
getState	-11.2929
▁assigning	-11.2929
▁startTime	-11.2931
getLast	-11.2933
py	-11.2939
perform	-11.294
nanoTime	-11.2942
▁treated	-11.2943
▁latch	-11.2944
pc	-11.2947
www	-11.2953
INSERT	-11.2955
▁Additionally	-11.2956
setParameter	-11.2958
▁xpath	-11.296
getEPackage	-11.296
▁Retrieves	-11.2965
▁Remember	-11.2965
readValue	-11.2968
Wait	-11.297
▁md	-11.2975
WARNING	-11.2976
▁ParseException	-11.2977
▁insertion	-11.2981
annotations	-11.2986
Origin	-11.2994
board	-11.3009
▁painting	-11.301
▁face	-11.3027
▁looked	-11.3027
▁knowledge	-11.3029
howMessageDialog	-11.3031
Standard	-11.3035
forward	-11.3036
▁Keep	-11.3037
▁sdf	-11.3037
▁Probably	-11.3038
LEFT	-11.3039
▁copies	-11.3041
▁WEB	-11.3044
▁fs	-11.3045
datasource	-11.3047
▁instant	-11.3049
Utility	-11.3052
keystore	-11.3054
oo	-11.3057
cf	-11.3057
▁Virtual	-11.3059
ec	-11.3063
▁trust	-11.3065
▁Framework	-11.3074
Spinner	-11.3074
37	-11.3075
▁folders	-11.3079
loader	-11.3083
setAccessible	-11.3083
▁outputStream	-11.3084
UTC	-11.3085
Blob	-11.3085
dataSource	-11.3086
Elem	-11.309
Mail	-11.3094
mb	-11.3094
without	-11.3099
▁restore	-11.3103
▁corner	-11.3108
Download	-11.3109
literal	-11.311
openConnection	-11.311
▁involved	-11.3112
▁WAR	-11.3114
▁hack	-11.3117
inputStream	-11.3119
Sign	-11.312
▁CmsException	-11.3121
tags	-11.3125
▁newline	-11.3126
ry	-11.3132
getEClassifier	-11.3135
▁roles	-11.3135
▁IntStream	-11.3138
Include	-11.3141
▁rec	-11.3147
▁Variable	-11.3148
mapper	-11.3149
XmlElement	-11.3153
Setter	-11.3153
▁bi	-11.3154
▁allocate	-11.3154
uses	-11.3155
Hours	-11.316
External	-11.3162
▁jsp	-11.3163
sign	-11.3165
▁Token	-11.3166
Browser	-11.3167
▁picture	-11.3168
ByName	-11.3175
▁patch	-11.3176
CA	-11.3177
▁contentType	-11.3179
▁UTC	-11.318
▁expose	-11.3181
-1]	-11.3184
FileNotFound	-11.3191
▁bin	-11.3191
getDeclaredField	-11.3194
▁standalone	-11.3195
▁Notice	-11.3196
▁EDT	-11.3197
▁Storage	-11.32
Feed	-11.3202
Track	-11.3209
EL	-11.3213
jvm	-11.3218
Relation	-11.322
▁regarding	-11.322
▁2);	-11.3222
▁applicable	-11.3223
sync	-11.3223
native	-11.3223
▁forgot	-11.3225
▁1];	-11.3228
▁telling	-11.323
CC	-11.3231
▁describes	-11.3232
(?:	-11.3232
Dynamic	-11.3233
warning	-11.3234
▁kill	-11.3237
▁boundary	-11.3241
getSystem	-11.3241
▁extracted	-11.3243
WIDTH	-11.3244
▁touch	-11.3245
hide	-11.3245
||	-11.3245
OneToMany	-11.3247
▁Guide	-11.325
▁PHP	-11.3255
RIGHT	-11.3255
groupingBy	-11.3256
Execute	-11.3259
▁decoded	-11.3262
▁scala	-11.3262
▁19	-11.3264
▁roll	-11.3268
▁Usually	-11.3268
38	-11.3272
cal	-11.3272
▁Setting	-11.3274
▁Reads	-11.3276
Ignore	-11.3278
▁FileNotFound	-11.3279
newValue	-11.3279
▁mozuClient	-11.3283
▁turned	-11.3284
Labels	-11.3286
LOCAL	-11.3287
▁graphics	-11.3288
getBean	-11.3289
▁Library	-11.329
headers	-11.3293
partition	-11.3298
▁colors	-11.3304
▁pressed	-11.3306
Delta	-11.3311
▁texture	-11.3312
▁parameterized	-11.3314
▁Updates	-11.332
-2	-11.3336
INVALID	-11.3336
protocol	-11.3339
▁clock	-11.3339
SESSION	-11.3339
▁Structure	-11.334
▁Validate	-11.3341
▁Jar	-11.3346
▁locks	-11.3346
toBlocking	-11.3351
getCause	-11.3352
▁Load	-11.3353
Register	-11.3356
▁cert	-11.3359
Features	-11.336
▁%>	-11.336
Callable	-11.3362
network	-11.3364
▁indent	-11.337
▁broadcast	-11.3374
▁interrupted	-11.3376
▁theme	-11.3377
▁sends	-11.3379
▁1.1	-11.3379
getDocument	-11.3381
ia	-11.3383
▁loss	-11.3385
agent	-11.3386
Pojo	-11.3392
ix	-11.3395
▁aspect	-11.3395
Composite	-11.3399
▁suggests	-11.3401
TEST	-11.3401
Question	-11.3403
▁division	-11.3406
▁evt	-11.3407
nextDouble	-11.3411
uc	-11.3417
▁Schema	-11.3417
MD	-11.3421
Whether	-11.3422
ncodingException	-11.3426
Managed	-11.3429
▁gl	-11.3429
/"	-11.3447
framework	-11.3451
ise	-11.3453
▁Local	-11.3454
setVisibility	-11.3458
▁sufficient	-11.3461
▁JIT	-11.3464
fix	-11.3467
Extensions	-11.3469
"]	-11.347
▁decision	-11.347
prepare	-11.3475
▁31	-11.348
▁act	-11.3481
49	-11.3482
Disk	-11.3483
author	-11.3483
Digits	-11.3485
▁EL	-11.3485
duration	-11.3487
putAll	-11.349
▁keeps	-11.3492
fe	-11.3495
actual	-11.3497
extract	-11.3498
Bottom	-11.3498
▁64-	-11.3501
43	-11.3503
Padding	-11.3504
region	-11.3504
exp	-11.3509
▁Jsoup	-11.351
▁gateway	-11.3514
▁edges	-11.3515
▁23	-11.3517
starter	-11.3519
cls	-11.3523
▁git	-11.3524
▁initializing	-11.3527
▁ArrayAdapter	-11.3527
▁se	-11.353
distance	-11.3531
TableName	-11.3538
▁commons	-11.3539
SNAPSHOT	-11.3541
▁Mutable	-11.3543
▁poll	-11.3543
▁manner	-11.3544
▁Generate	-11.3545
▁highly	-11.3546
LE	-11.3548
▁supply	-11.3548
Platform	-11.3552
desc	-11.3553
Off	-11.3553
▁convertTo	-11.3554
▁1024	-11.3555
Volume	-11.3556
▁hook	-11.3556
Hint	-11.3557
▁Dog	-11.3558
Audit	-11.3562
subject	-11.3562
▁filled	-11.3567
▁Execution	-11.3568
free	-11.3569
▁pw	-11.3573
▁Container	-11.3573
ObjectMapper	-11.3574
▁proc	-11.3576
:8080/	-11.3577
fc	-11.3582
▁translation	-11.3585
▁terminate	-11.3585
getResult	-11.3586
▁decided	-11.3586
▁fos	-11.3587
increment	-11.3593
Focus	-11.3597
▁adapt	-11.36
Free	-11.3603
columns	-11.3604
verify	-11.3605
▁tr	-11.3606
Alpha	-11.3606
2=	-11.3608
▁ServletContext	-11.361
Using	-11.3613
▁IDEA	-11.3613
▁Duration	-11.3617
▁checkNotNull	-11.3621
Something	-11.3622
messages	-11.3628
orElse	-11.3631
▁duplicates	-11.3633
▁largest	-11.3633
serialVersionUID	-11.3639
▁helped	-11.3642
da	-11.3644
▁passes	-11.3645
Ext	-11.3649
2-	-11.365
▁approaches	-11.3651
▁SAX	-11.3653
quot	-11.3654
Manifest	-11.3662
(",");	-11.3664
removeAll	-11.3668
▁DateFormat	-11.3668
jcasType	-11.3669
Alignment	-11.3669
alpha	-11.3669
▁Having	-11.3673
master	-11.3675
Scheduled	-11.3675
XXX	-11.3675
allow	-11.3676
▁hostname	-11.3676
xyz	-11.3677
▁boot	-11.3677
▁receiving	-11.3677
▁pure	-11.3678
ish	-11.3682
Started	-11.3683
▁situations	-11.3684
Age	-11.3686
\":\"	-11.3687
assuming	-11.3689
▁light	-11.3691
▁BTW	-11.3691
Ad	-11.3692
128	-11.3692
▁Plugin	-11.3693
ug	-11.3694
▁distributed	-11.3696
▁stick	-11.3696
▁serial	-11.3697
Done	-11.3699
▁cd	-11.3702
▁referring	-11.3702
Begin	-11.3704
▁effort	-11.3704
ATTRIBUTE	-11.3706
ang	-11.3706
InvocationTarget	-11.3707
▁LinearLayout	-11.3711
▁interpreted	-11.3716
▁room	-11.3718
FieldName	-11.3724
▁5)	-11.3724
fieldName	-11.3727
await	-11.3728
▁thinking	-11.373
DBConstants	-11.3731
Constraints	-11.3732
▁Publisher	-11.3736
getProperties	-11.3737
97	-11.3737
▁hardware	-11.3738
ile	-11.3739
▁natural	-11.374
Proto	-11.3741
Be	-11.3742
▁sender	-11.3742
Writable	-11.3744
▁containers	-11.3745
Links	-11.3748
RequestParam	-11.375
cb	-11.3753
world	-11.3754
ine	-11.3754
Analysis	-11.3756
Creation	-11.3757
▁bootstrap	-11.3758
Light	-11.3759
+=	-11.3759
Checker	-11.376
Received	-11.376
▁leak	-11.3763
▁Post	-11.3763
▁Generally	-11.3766
▁100%	-11.3769
management	-11.3771
peek	-11.3775
▁Book	-11.3775
Loading	-11.3777
>\	-11.3782
▁reasonable	-11.3782
BE	-11.3783
ids	-11.3785
(2)	-11.3788
ier	-11.3791
getHeader	-11.3794
▁accomplish	-11.3794
getComponent	-11.3794
PATTERN	-11.3795
Supported	-11.3798
getModel	-11.3801
console	-11.3809
▁6,	-11.3812
Clause	-11.3813
▁17	-11.3814
▁stats	-11.3814
▁among	-11.3815
▁attachment	-11.3815
EE	-11.3815
deploy	-11.3816
ContentType	-11.3818
"})	-11.382
▁pack	-11.3822
▁bindings	-11.3824
describe	-11.3824
▁Graph	-11.3827
Geometry	-11.383
▁recursively	-11.3832
BUFFER	-11.3832
▁std	-11.3836
userId	-11.3837
▁3:	-11.3839
0;	-11.3845
nextPageLink	-11.3846
Angle	-11.3847
Scheme	-11.3849
▁thanks	-11.3849
Getter	-11.385
▁learning	-11.385
▁inclusive	-11.3851
▁NetBeans	-11.3854
getLocation	-11.3858
Shell	-11.3859
AT	-11.3862
Super	-11.3869
Qualifier	-11.3869
▁sizes	-11.3875
DateFormat	-11.3878
sTo	-11.3878
mat	-11.3879
▁straight	-11.3884
Accessor	-11.3886
Closed	-11.3886
EDEFAULT	-11.3887
▁highest	-11.3888
Conditions	-11.3888
▁nextPageLink	-11.3893
▁atomic	-11.3897
Terminal	-11.3897
▁...;	-11.3899
running	-11.3904
ads	-11.3905
Balance	-11.3905
▁Login	-11.3906
▁indexed	-11.3909
▁dist	-11.3911
entries	-11.3912
PORT	-11.3918
▁catalog	-11.3919
sFor	-11.3927
▁grant	-11.393
54	-11.3932
Country	-11.3933
▁guarantees	-11.3936
getFirst	-11.394
▁connector	-11.394
()+"	-11.3945
Comp	-11.3945
BufferedImage	-11.3946
Parameterized	-11.3948
ring	-11.3949
Desktop	-11.3952
(\\	-11.3953
Without	-11.3959
▁warnings	-11.3962
▁Media	-11.3962
400	-11.3967
56	-11.3968
Primitive	-11.3969
▁loads	-11.3969
▁bugs	-11.397
▁PrintStream	-11.3972
▁removes	-11.3977
▁SELECT	-11.398
VIEW	-11.3983
▁Cipher	-11.3987
Canvas	-11.3988
integer	-11.399
▁typical	-11.3991
ErrorCode	-11.3995
matrix	-11.3995
ACCESS	-11.3998
▁Uri	-11.3998
▁bunch	-11.3999
Hour	-11.3999
EntityManager	-11.4001
download	-11.4003
▁'%	-11.4007
Sorted	-11.4007
▁desktop	-11.4007
▁models	-11.4009
Deleted	-11.4012
Added	-11.4013
▁JComponent	-11.4018
quote	-11.4018
getVersion	-11.402
COUNT	-11.402
dr	-11.4023
identity	-11.4023
▁convenient	-11.4024
▁operate	-11.4026
▁gave	-11.4028
({	-11.4029
stats	-11.4029
Scheduler	-11.4032
▁somewhat	-11.4033
reverse	-11.4036
Net	-11.4039
▁SAXException	-11.404
▁segments	-11.4041
Pixel	-11.4041
▁semantics	-11.4043
VM	-11.4047
▁1.7	-11.4048
▁notation	-11.405
nc	-11.4051
▁cut	-11.4054
▁Mono	-11.4055
▁textView	-11.4058
▁levels	-11.4062
%2	-11.4063
85	-11.4066
▁dim	-11.4066
way	-11.4069
/2	-11.4071
Projection	-11.4071
▁repositories	-11.4072
▁construction	-11.4072
Safe	-11.4073
▁mostly	-11.4074
▁Shape	-11.4076
elem	-11.4077
▁cookies	-11.4079
▁offers	-11.4081
ExceptionHandler	-11.4085
▁backup	-11.4086
▁Unless	-11.409
rc	-11.4091
▁perfect	-11.4097
▁slower	-11.4099
▁supplier	-11.41
ARN	-11.41
▁32-	-11.4102
55	-11.4107
getColumn	-11.4116
▁inherit	-11.4117
▁Xml	-11.412
Cat	-11.412
▁Instant	-11.4125
▁convertView	-11.4128
po	-11.4132
▁research	-11.4134
then	-11.4135
▁Preferences	-11.4136
FileSystem	-11.4139
dll	-11.414
Detector	-11.4141
ha	-11.4143
▁transition	-11.4143
▁inline	-11.4145
ApiException	-11.4147
▁assumed	-11.4149
Validate	-11.415
!)	-11.4154
RequestBody	-11.4154
HOUR	-11.4157
=%	-11.4157
Board	-11.4167
nextElement	-11.417
addAttribute	-11.417
63	-11.4171
▁ssl	-11.4174
(10,	-11.4177
HEADER	-11.4179
▁Batch	-11.4179
Fill	-11.418
win	-11.4186
Extended	-11.4187
▁acquire	-11.419
▁lose	-11.4191
ERR	-11.4192
shell	-11.4192
▁Jetty	-11.4193
ManyToOne	-11.4194
▁StringTokenizer	-11.4194
numbers	-11.4197
▁RecyclerView	-11.42
diff	-11.4201
disable	-11.4202
ated	-11.4202
Availability	-11.4204
scroll	-11.4206
<?>)	-11.4206
▁Before	-11.4208
Reduce	-11.4211
projects	-11.4215
▁caught	-11.4219
LOCATION	-11.4219
▁algorithms	-11.4221
▁drawable	-11.4221
pi	-11.4227
tra	-11.4228
▁Calling	-11.4232
▁produced	-11.4233
Threads	-11.4234
▁onPostExecute	-11.4236
▁familiar	-11.4236
▁Kotlin	-11.424
▁userName	-11.4241
ONLY	-11.4243
▁months	-11.4243
▁AtomicInteger	-11.4249
▁portion	-11.4252
Public	-11.4254
storage	-11.4256
ENTITY	-11.4262
▁applying	-11.4263
liferay	-11.4264
▁conventions	-11.4267
getItem	-11.427
▁crash	-11.427
FALSE	-11.4271
▁StringWriter	-11.4275
▁prime	-11.4276
▁scripts	-11.4278
Old	-11.4279
SEPARATOR	-11.4279
▁NPE	-11.428
▁General	-11.4282
▁mp	-11.4287
▁triggered	-11.4288
standard	-11.429
deployment	-11.429
▁imagine	-11.4291
Css	-11.4293
▁URLs	-11.4295
▁Netbeans	-11.4295
▁Memory	-11.4296
▁Auto	-11.4298
▁measure	-11.4301
▁entityManager	-11.4302
▁Spark	-11.4306
▁submitted	-11.4307
Matching	-11.431
▁chaining	-11.4312
ServletRequest	-11.4312
-16	-11.4315
cm	-11.4316
country	-11.4316
Req	-11.4316
thenReturn	-11.4324
Reply	-11.4324
slf	-11.4327
Equals	-11.4329
MATCH	-11.433
modules	-11.4333
Primary	-11.4333
▁PagedList	-11.4334
▁reserved	-11.4335
▁artifacts	-11.4336
chars	-11.4336
MI	-11.4338
▁:-)	-11.4342
▁noticed	-11.4345
getLong	-11.4346
chain	-11.4347
▁agree	-11.4351
cause	-11.4352
▁simplify	-11.4354
▁allocation	-11.4359
MASK	-11.4362
▁POM	-11.4366
▁bond	-11.4369
OPTION	-11.437
archive	-11.437
VK	-11.4373
orientation	-11.4378
▁HttpResponse	-11.4379
Jvm	-11.4382
▁modern	-11.4386
fire	-11.4387
MF	-11.439
force	-11.4395
wise	-11.4395
95	-11.4397
▁filePath	-11.4397
XY	-11.4402
▁converts	-11.4405
RunWith	-11.4406
oneId	-11.4408
student	-11.441
▁Messages	-11.4413
COLOR	-11.4413
++,	-11.4415
▁Order	-11.4415
reduce	-11.4416
Used	-11.4416
Forward	-11.4418
sdk	-11.4421
▁locate	-11.4426
Inventory	-11.4429
▁assertEquals	-11.4429
future	-11.443
States	-11.4432
Revision	-11.4434
▁Send	-11.4434
Release	-11.4438
getNode	-11.4438
mvn	-11.4439
▁cleaner	-11.4442
alt	-11.4444
ible	-11.4448
Completed	-11.4448
▁Selenium	-11.4449
Allow	-11.4449
▁certificates	-11.4453
▁statistics	-11.4455
▁pause	-11.4456
▁RFC	-11.4457
angle	-11.4457
]=	-11.4458
getChild	-11.4459
StandardCharsets	-11.4461
▁TODO	-11.4461
▁math	-11.4461
sec	-11.4463
▁brackets	-11.4464
▁Form	-11.4464
▁Joda	-11.4467
emptyList	-11.4469
redirect	-11.4469
▁communicate	-11.4473
▁optimize	-11.4474
']	-11.4476
▁watch	-11.4478
▁ticket	-11.4478
ial	-11.4479
bottom	-11.4483
Generated	-11.4484
Draw	-11.4485
▁human	-11.4488
▁INTO	-11.4489
▁traverse	-11.4489
vertical	-11.4489
seconds	-11.4492
▁Hashtable	-11.4492
▁controls	-11.4493
toMap	-11.4493
comment	-11.4493
▁filtering	-11.4496
▁finds	-11.4497
▁rotate	-11.4498
Visibility	-11.45
manifest	-11.4505
▁Console	-11.4506
charset	-11.4508
Stat	-11.4508
existing	-11.4511
▁activities	-11.4513
apiVersion	-11.4515
▁Network	-11.4517
▁doubt	-11.4517
Ch	-11.4521
▁automatic	-11.4523
RelativeTo	-11.4526
46	-11.4527
consumer	-11.4529
AC	-11.453
▁lat	-11.4531
▁trailing	-11.4531
▁Copy	-11.4532
▁perspective	-11.4532
Preferences	-11.4536
▁serializable	-11.4537
▁echo	-11.4539
69	-11.4539
▁resourceName	-11.454
consume	-11.4541
7.	-11.4543
▁discount	-11.4549
0);	-11.4551
segment	-11.4556
▁closest	-11.4557
▁detected	-11.4561
▁serve	-11.4564
▁OSGi	-11.4566
payload	-11.4568
▁stopped	-11.4568
Association	-11.4569
we	-11.4571
▁trivial	-11.4574
▁ApiResponse	-11.458
▁identified	-11.4581
▁inter	-11.4585
▁ImmutableList	-11.4586
CL	-11.4588
Bindings	-11.4588
here	-11.459
▁buffers	-11.4593
EJB	-11.4598
▁destroy	-11.4601
JsonObject	-11.4602
▁verbose	-11.4603
propertyName	-11.4604
Tool	-11.4606
subscribe	-11.4607
▁JComboBox	-11.4608
▁accessor	-11.4609
▁strange	-11.4614
▁Refer	-11.4615
"></	-11.4615
▁*=	-11.4616
ay	-11.4622
ct	-11.4622
▁dataSnapshot	-11.4625
▁beyond	-11.4626
▁JavaDoc	-11.4626
▁broker	-11.463
▁startIndex	-11.4631
plain	-11.4635
▁Fast	-11.4635
John	-11.4637
waitFor	-11.4638
▁confirm	-11.464
▁Constants	-11.464
OUT	-11.4641
▁millis	-11.4645
▁Controller	-11.4651
Digit	-11.4651
▁smallest	-11.4654
ful	-11.4654
67	-11.4654
EVENT	-11.4654
MILLISECONDS	-11.4655
▁RequestMethod	-11.4655
▁compiling	-11.4656
Toolbar	-11.4657
transport	-11.4659
▁concatenation	-11.4662
▁ThreadLocal	-11.4664
bits	-11.4672
70	-11.4676
getConfig	-11.4678
arguments	-11.4681
58	-11.4688
Material	-11.4694
Radius	-11.4694
CR	-11.4705
▁Box	-11.4706
▁answered	-11.4707
▁minor	-11.4709
Utilities	-11.4711
▁samples	-11.4711
JButton	-11.4713
▁TypeToken	-11.4715
pair	-11.4718
used	-11.4723
▁ms	-11.4728
]))	-11.4732
▁computation	-11.4733
512	-11.4742
initial	-11.4747
ADD	-11.4752
IC	-11.4754
Regex	-11.4755
▁declarations	-11.4755
▁Link	-11.4757
sin	-11.4758
▁40	-11.4759
Based	-11.4759
▁SwingWorker	-11.4764
compute	-11.4767
getNum	-11.4767
formatter	-11.4773
▁overrides	-11.478
▁":"	-11.4791
▁products	-11.4793
writeObject	-11.4797
▁InetAddress	-11.4804
▁risk	-11.4806
CmsResource	-11.4806
▁OpenJDK	-11.4809
[4]	-11.481
ci	-11.4812
▁platforms	-11.4812
take	-11.4812
holder	-11.4814
▁decrease	-11.4815
Decimal	-11.4817
ignore	-11.4819
Measure	-11.4825
Co	-11.4826
nt	-11.4828
Pending	-11.4836
▁codes	-11.4837
Stuff	-11.4839
sBy	-11.4841
firstName	-11.4842
▁Address	-11.4845
▁impact	-11.4846
Versions	-11.4848
getRow	-11.485
▁nodeList	-11.4851
digit	-11.4851
Hibernate	-11.4852
AD	-11.4852
subList	-11.4852
▁Validation	-11.4852
7,	-11.4857
▁SI	-11.4858
AttributeValue	-11.4864
setData	-11.4867
▁mix	-11.4869
▁tutorials	-11.4869
groups	-11.487
▁sun	-11.4871
CHAR	-11.4871
calendar	-11.4875
!!	-11.4876
▁locally	-11.4876
▁100;	-11.4878
gson	-11.4887
character	-11.4887
IMAGE	-11.4888
ol	-11.4893
binary	-11.4894
▁compressed	-11.4898
▁convenience	-11.49
<=	-11.4903
Members	-11.4906
Direct	-11.491
▁Interface	-11.4912
▁physical	-11.4916
▁Same	-11.4916
▁templates	-11.4917
2/	-11.4922
▁Again	-11.4925
▁OP	-11.493
▁plane	-11.493
ah	-11.4931
▁primitives	-11.4939
paintComponent	-11.4941
drop	-11.4941
▁technique	-11.4944
▁buffered	-11.4944
▁vertices	-11.4947
[2];	-11.495
Btn	-11.4961
▁understood	-11.4963
▁Writes	-11.4966
RC	-11.4968
▁2.1	-11.4969
52	-11.4972
When	-11.4973
Coordinate	-11.4978
▁outputs	-11.4979
ind	-11.4981
▁Store	-11.4982
jms	-11.4985
spark	-11.4985
Peer	-11.4986
clean	-11.4988
Keyword	-11.499
▁knowing	-11.4992
Modified	-11.4993
Room	-11.4993
bl	-11.4994
Quote	-11.4997
▁subtype	-11.5
SEVERE	-11.5001
CH	-11.5002
getReference	-11.5003
▁kept	-11.5005
stage	-11.5007
▁computed	-11.5013
chunk	-11.5017
65	-11.5018
▁recently	-11.502
▁respectively	-11.5023
dist	-11.5023
66	-11.5024
Asset	-11.5028
▁Those	-11.5035
loc	-11.5041
▁notes	-11.5043
▁pay	-11.5044
PK	-11.5046
Repo	-11.5047
RESULT	-11.5049
getRoot	-11.5051
▁Did	-11.5058
av	-11.5059
getAttributes	-11.506
▁cascade	-11.506
▁sequences	-11.5061
▁1.2	-11.5064
Src	-11.5066
1")	-11.5067
remaining	-11.507
▁"\\	-11.5073
▁PATH	-11.5075
ens	-11.5077
(1).	-11.5078
ABLE	-11.5079
Submit	-11.5084
▁Cursor	-11.5089
bucket	-11.5089
▁JNDI	-11.5089
▁interact	-11.5092
feat	-11.5094
allocate	-11.5094
sources	-11.5097
video	-11.5098
▁literals	-11.51
Replace	-11.51
BeanDefinition	-11.5102
ABC	-11.5109
Convert	-11.5112
▁peer	-11.5112
faces	-11.5114
▁WebDriver	-11.5114
glassfish	-11.5115
progress	-11.5116
▁safety	-11.5118
jaxb	-11.512
▁stay	-11.5122
SessionFactory	-11.5124
Lifecycle	-11.5127
▁eg	-11.5129
▁zoom	-11.5132
Shift	-11.5136
▁overall	-11.5136
▁providers	-11.5137
▁hashcode	-11.5139
getService	-11.514
serialize	-11.5145
▁erasure	-11.5146
▁FileSystem	-11.5148
Evaluator	-11.5149
most	-11.5154
href	-11.5158
▁opt	-11.516
Workspace	-11.5161
▁Question	-11.5161
▁ability	-11.5161
programmatically	-11.5162
▁err	-11.5163
▁serverName	-11.5163
▁corresponds	-11.5164
setAdapter	-11.5166
▁pagination	-11.5166
oc	-11.5168
(10);	-11.5168
▁fragments	-11.517
▁behave	-11.5171
Animal	-11.5182
https	-11.5184
Same	-11.5184
▁databases	-11.5186
hand	-11.5187
sPer	-11.519
▁quality	-11.5193
city	-11.5199
Finished	-11.5201
ities	-11.5204
▁rollback	-11.5204
_1,	-11.5205
getTitle	-11.5206
expr	-11.5207
▁bus	-11.5209
▁mine	-11.5212
getBoolean	-11.5212
▁modifications	-11.5215
▁JSR	-11.5216
fr	-11.5219
▁IOUtils	-11.5221
Picture	-11.5221
▁ranges	-11.5222
▁18	-11.5225
▁rank	-11.5226
▁Certificate	-11.523
▁AWT	-11.5232
▁ending	-11.5233
▁cs	-11.5236
Addresses	-11.5242
smtp	-11.5243
Real	-11.5244
Scene	-11.5245
Distribution	-11.5249
▁Common	-11.5249
)}.	-11.5249
strategy	-11.5249
▁Feature	-11.525
que	-11.5254
_3	-11.5255
layer	-11.5256
Team	-11.526
▁EPackage	-11.5262
▁resultSet	-11.5263
equal	-11.5264
findFirst	-11.5265
route	-11.5266
DocumentBuilder	-11.5268
▁Remote	-11.5274
ist	-11.5276
▁dictionary	-11.5278
▁relatively	-11.528
Face	-11.528
▁normalized	-11.5281
getPreferredSize	-11.5282
ver	-11.5283
}"/>	-11.5284
atom	-11.5284
▁1.8	-11.5287
interrupt	-11.5287
TreeNode	-11.5289
AB	-11.529
CASE	-11.5291
interval	-11.5292
eat	-11.5293
▁backing	-11.5294
getSystemService	-11.5294
▁builds	-11.5296
math	-11.53
+1]	-11.5301
▁Javascript	-11.5301
javascript	-11.5302
BY	-11.5307
SOURCE	-11.5307
▁filesystem	-11.5311
Dog	-11.5312
filePath	-11.5318
▁sessions	-11.5318
▁symbols	-11.5318
AES	-11.532
▁100,	-11.5322
Between	-11.5323
DOWN	-11.5325
World	-11.5326
Updated	-11.5328
▁pc	-11.5328
Definitions	-11.5332
▁Thank	-11.5333
Multipart	-11.5339
▁chunks	-11.5347
scanner	-11.535
Oracle	-11.5351
Clock	-11.5354
▁PS	-11.5355
▁workflow	-11.5356
Concept	-11.5356
setOn	-11.5356
▁baos	-11.5357
FOUND	-11.5357
▁manipulate	-11.5358
hasMoreElements	-11.536
Hook	-11.536
toJson	-11.5362
▁plug	-11.5365
▁IN	-11.5368
Encryption	-11.5368
▁getView	-11.5368
setInt	-11.5369
<?,	-11.537
fail	-11.537
▁belong	-11.5374
Candidate	-11.5374
▁lowercase	-11.5377
6,	-11.5377
▁describing	-11.5377
▁guessing	-11.5381
normal	-11.5382
Indicator	-11.5382
setType	-11.5389
Variant	-11.5391
aa	-11.5391
Csv	-11.5393
▁orig	-11.5394
Private	-11.5397
schemaLocation	-11.5398
▁remains	-11.5399
▁polygon	-11.5399
▁drag	-11.54
demo	-11.5401
3;	-11.5406
PoolExecutor	-11.5409
▁programmer	-11.541
1-	-11.5411
Unique	-11.5413
▁Parses	-11.5413
▁blue	-11.5414
▁Location	-11.5414
▁introduce	-11.5415
Publish	-11.5416
▁listOf	-11.5417
enum	-11.5417
YOUR	-11.5418
-1;	-11.5418
zone	-11.542
ROLE	-11.5422
Finish	-11.5425
▁jdbc	-11.5426
▁textField	-11.5426
ger	-11.5433
LayoutInflater	-11.5434
Circle	-11.5436
Suite	-11.5437
eb	-11.5442
Unsupported	-11.5442
getTable	-11.5442
Coord	-11.5444
-4	-11.5448
▁emp	-11.545
▁volume	-11.5451
AUTO	-11.5452
▁capabilities	-11.5452
FX	-11.5454
Uuid	-11.5457
▁Currently	-11.5458
-0	-11.5463
Encoded	-11.5463
▁everyone	-11.5464
details	-11.5464
▁imports	-11.5466
setContent	-11.5472
getDescription	-11.5475
▁legacy	-11.5475
OPEN	-11.5484
employee	-11.5485
▁multipart	-11.5486
optionally	-11.5488
Place	-11.5493
53	-11.5493
DataSnapshot	-11.5501
converter	-11.5501
▁DriverManager	-11.5503
bo	-11.5504
2))	-11.5504
.*?	-11.5505
▁spinner	-11.5505
▁bb	-11.5507
▁minimal	-11.5512
▁wire	-11.5517
▁128	-11.5517
Ver	-11.5518
CLIENT	-11.5518
▁interrupt	-11.5518
PUT	-11.553
DN	-11.553
▁foreign	-11.5534
gravity	-11.5536
▁Pdf	-11.5541
▁Regarding	-11.5545
▁safely	-11.5552
▁WebElement	-11.5556
switch	-11.5559
Patch	-11.5565
he	-11.5567
-10	-11.5573
▁Dynamic	-11.5574
▁dt	-11.5575
-->	-11.5576
readObject	-11.5578
pp	-11.5583
subscriptionId	-11.5583
SYSTEM	-11.5585
▁green	-11.5585
GC	-11.5587
▁cf	-11.5593
Mappings	-11.5593
Phase	-11.5596
▁cleanup	-11.5597
Actor	-11.5599
▁mobile	-11.56
Func	-11.56
▁0:	-11.5607
▁css	-11.5607
setBounds	-11.561
Shared	-11.5612
▁populated	-11.5615
▁assertion	-11.5615
Multimap	-11.5621
57	-11.5623
84	-11.5624
refresh	-11.5624
▁personally	-11.5627
Reason	-11.5629
▁weird	-11.5629
1[	-11.5631
bi	-11.5635
▁geo	-11.5635
poi	-11.5636
▁reported	-11.5637
Navigation	-11.5637
invalid	-11.5638
▁pt	-11.564
▁grab	-11.5645
▁0){	-11.5646
▁internet	-11.5646
▁gain	-11.5649
created	-11.565
Compare	-11.5653
There	-11.5658
Skip	-11.5661
▁dev	-11.5662
parseLong	-11.5666
▁Composite	-11.5667
▁MyObject	-11.5672
ably	-11.5673
▁listening	-11.5673
DataOutputStream	-11.5673
Capture	-11.5674
TM	-11.5674
▁txt	-11.5676
digest	-11.5679
▁enforce	-11.568
▁myList	-11.5681
selector	-11.5682
BYTE	-11.5682
until	-11.5683
Now	-11.5683
inject	-11.5685
▁exc	-11.5685
Organization	-11.5689
▁"%	-11.569
▁flexible	-11.5692
lic	-11.5693
▁firstName	-11.5693
PROP	-11.5695
getAction	-11.5696
EXTRA	-11.5696
Three	-11.5697
_0)	-11.5698
cli	-11.5701
pa	-11.5703
DO	-11.5703
▁reportError	-11.5707
NUM	-11.5709
▁4.	-11.571
▁tricky	-11.571
▁Looking	-11.5715
Broker	-11.5715
▁associate	-11.5715
enter	-11.572
border	-11.5722
▁pb	-11.5722
Currency	-11.5723
what	-11.5725
▁intersection	-11.5725
Cached	-11.5727
Virtual	-11.5728
oracle	-11.573
▁Binary	-11.573
multi	-11.5732
Sound	-11.5732
▁func	-11.5733
Categories	-11.5737
PRIVATE	-11.5737
▁pointers	-11.5743
Dump	-11.5744
▁locked	-11.5745
getCell	-11.5746
▁ClassCast	-11.5749
ze	-11.5751
▁differ	-11.5751
▁notified	-11.5752
getStart	-11.5755
jetty	-11.5759
▁WS	-11.5762
▁Persistence	-11.5763
Printer	-11.5764
▁drive	-11.577
Roles	-11.5773
ni	-11.5776
Pdf	-11.5777
▁redundant	-11.5781
ace	-11.5783
selenium	-11.5784
▁fis	-11.5786
Popup	-11.5788
vector	-11.5794
MP	-11.5795
Instant	-11.5795
▁lastName	-11.5798
keep	-11.58
Configurations	-11.58
▁Struts	-11.5801
▁initially	-11.5801
unique	-11.5802
▁suggestions	-11.5803
lu	-11.5808
▁die	-11.5808
edge	-11.5809
▁Null	-11.5812
our	-11.5813
Resolution	-11.5815
▁dead	-11.5818
filtered	-11.5819
")))	-11.582
drawImage	-11.582
▁interest	-11.5823
▁Concurrent	-11.5823
Fail	-11.5831
Tables	-11.5837
ifc	-11.5845
▁fallback	-11.5845
Polygon	-11.5846
led	-11.585
▁Channel	-11.5851
-3	-11.5851
▁buff	-11.5851
isLoggable	-11.5852
▁preserve	-11.5859
▁deleting	-11.5859
▁near	-11.5862
▁JList	-11.5862
stmt	-11.5863
(3);	-11.5866
Changes	-11.5869
▁Seems	-11.587
flags	-11.5872
mon	-11.5872
▁Sort	-11.5873
▁Hello	-11.5874
tf	-11.5874
JLabel	-11.5875
team	-11.5876
▁isValid	-11.5877
▁early	-11.5878
RSA	-11.5881
89	-11.5884
uid	-11.5886
▁aggregate	-11.5886
ServiceException	-11.5887
stat	-11.5889
oom	-11.589
▁actor	-11.589
▁Redis	-11.589
echo	-11.589
ejb	-11.5892
Fault	-11.5892
▁referencing	-11.5892
True	-11.5895
▁Supplier	-11.5897
▁apparently	-11.5901
getResponse	-11.5902
Setup	-11.5904
ga	-11.5904
▁Maps	-11.5905
Exp	-11.5912
lon	-11.5915
how	-11.5919
Multiple	-11.5919
▁elegant	-11.5922
▁failing	-11.5925
eval	-11.5926
▁canonical	-11.593
▁GridBagLayout	-11.5931
0-9	-11.5932
▁portlet	-11.5932
(5,	-11.5933
Evaluation	-11.5936
Removed	-11.5938
▁Proxy	-11.5941
methodName	-11.5942
there	-11.5944
Conn	-11.5945
NameValuePair	-11.5948
▁emitted	-11.595
Break	-11.595
generic	-11.5951
▁16)	-11.5951
▁screenshot	-11.5951
cfg	-11.5951
▁Card	-11.5954
Lat	-11.5955
predicate	-11.5965
Produces	-11.5966
▁80	-11.5968
▁Version	-11.5969
ou	-11.5975
section	-11.5979
▁acceptable	-11.598
notification	-11.598
▁21	-11.5987
Initial	-11.5989
▁compression	-11.5991
UNKNOWN	-11.5994
▁combo	-11.5996
Ratio	-11.5997
▁httpClient	-11.6002
Blocks	-11.6004
▁KeyStore	-11.6008
?"	-11.601
Sec	-11.6011
getImage	-11.6014
sf	-11.6016
flag	-11.6017
Realm	-11.6017
Exec	-11.6017
PS	-11.6019
▁searched	-11.6019
▁Print	-11.6022
▁slash	-11.6022
userName	-11.6024
Animator	-11.6026
▁strip	-11.603
dump	-11.6034
checkNotNull	-11.6035
cookie	-11.6036
▁Guice	-11.6036
share	-11.6037
▁legal	-11.6041
addChild	-11.6042
▁Script	-11.6043
▁mysql	-11.6044
▁confused	-11.6045
Tax	-11.6047
done	-11.6048
▁abstraction	-11.6049
▁childNode	-11.605
ERO	-11.6053
mf	-11.6053
▁JOIN	-11.6053
▁cover	-11.6059
SECOND	-11.606
▁streaming	-11.6061
Console	-11.6061
Mark	-11.6064
▁Obviously	-11.6068
ka	-11.6071
▁hasn	-11.6073
="+	-11.6073
▁Used	-11.6075
▁limits	-11.6077
SDK	-11.6078
Ticket	-11.6078
255	-11.608
CmsObject	-11.6081
▁blocked	-11.6087
tv	-11.6088
Assert	-11.6089
ag	-11.609
Merge	-11.6091
getColor	-11.6093
Heap	-11.6096
xsi	-11.6096
▁pdf	-11.6098
▁principle	-11.6101
Calculator	-11.6101
▁proceed	-11.6101
tasks	-11.6104
▁harder	-11.6104
▁persisted	-11.6105
Tick	-11.6106
▁effects	-11.6106
▁Following	-11.6109
96	-11.611
▁1.4	-11.6116
▁inspect	-11.6119
Dialect	-11.6119
Texture	-11.612
78	-11.6121
▁ensures	-11.6123
Sender	-11.6124
▁implies	-11.6125
Aspect	-11.6126
iz	-11.6126
▁totally	-11.6127
▁KEY	-11.6128
▁assumption	-11.6129
▁multiply	-11.6129
▁oracle	-11.6129
▁recognize	-11.6134
Decl	-11.6136
▁oldValue	-11.614
▁black	-11.6142
Side	-11.6144
▁navigation	-11.6145
▁city	-11.6145
setIcon	-11.6146
processException	-11.6147
Handlers	-11.6148
CONTEXT	-11.6148
▁kernel	-11.6148
▁missed	-11.6156
TASK	-11.6158
threaded	-11.616
Solution	-11.6161
webapp	-11.6162
Clazz	-11.6163
▁substitution	-11.6167
environment	-11.6167
party	-11.6168
userAgent	-11.617
related	-11.6171
chart	-11.6173
blue	-11.6173
▁credential	-11.6177
▁Reader	-11.6188
▁Kafka	-11.6188
numberOf	-11.619
setBorder	-11.6192
▁0.0;	-11.6193
ke	-11.6195
tile	-11.6199
77	-11.62
▁el	-11.62
delegate	-11.6204
Mem	-11.6204
▁stacktrace	-11.6204
▁jvm	-11.6206
▁ext	-11.621
writeInt	-11.6211
GB	-11.6211
paint	-11.6212
DD	-11.6215
[0-9]	-11.6217
▁remainder	-11.6222
shift	-11.6222
dy	-11.6222
KeyStore	-11.6225
Unexpected	-11.6225
libs	-11.6227
▁ascending	-11.6229
▁seq	-11.6234
Interfaces	-11.6237
ng	-11.6237
Dictionary	-11.6237
SL	-11.6238
▁retrieving	-11.6238
▁#2	-11.624
Typed	-11.6242
driven	-11.6244
▁Furthermore	-11.6248
▁undefined	-11.625
ddl	-11.625
meter	-11.6254
▁SQLite	-11.6255
So	-11.6256
▁Retrieve	-11.6256
exclusion	-11.6259
metric	-11.626
▁Save	-11.626
Ops	-11.6264
Week	-11.6265
Persistent	-11.6268
timer	-11.6268
5.0	-11.6268
ErrorException	-11.627
▁JsonNode	-11.6273
wrapper	-11.6273
JSONArray	-11.6276
▁400	-11.6277
"},	-11.6279
<?>[]	-11.6281
/*	-11.6282
(..)	-11.6285
Existing	-11.6286
▁horizontal	-11.6288
override	-11.6288
▁receives	-11.6289
▁locator	-11.6291
direct	-11.6292
SUB	-11.6295
Issue	-11.6295
▁frequency	-11.6296
41	-11.6297
PARENT	-11.6298
PL	-11.6301
Connections	-11.6302
4.0	-11.6305
▁LinkedHashSet	-11.6308
1.8.0_	-11.631
▁Operation	-11.6314
casFeat	-11.6316
1>	-11.6316
ler	-11.6318
▁stops	-11.6321
Encode	-11.6322
▁prevents	-11.6325
Letter	-11.6328
▁Excel	-11.6329
▁Native	-11.633
MBean	-11.633
dim	-11.6332
setMax	-11.6332
Img	-11.6333
▁respond	-11.6338
▁compiles	-11.6339
say	-11.6345
())));	-11.6351
▁rounding	-11.6351
AdapterView	-11.6352
lv	-11.6353
Loaded	-11.6354
Immutable	-11.6354
▁transient	-11.6355
Units	-11.6361
unless	-11.6365
CE	-11.6367
Addr	-11.6368
▁strict	-11.6368
TimeUnit	-11.6369
USE	-11.6376
▁enums	-11.6378
▁shorter	-11.6378
delta	-11.6386
Problem	-11.6389
Contains	-11.6392
More	-11.6395
▁afterwards	-11.6397
▁alter	-11.6399
▁NodeList	-11.64
Preview	-11.6402
1234	-11.6403
75	-11.6404
DataSet	-11.6405
▁KeyEvent	-11.6406
Company	-11.641
Curve	-11.641
many	-11.6412
Indexed	-11.6412
ging	-11.6413
pid	-11.6414
▁customize	-11.6415
tail	-11.6415
▁dateFormat	-11.6416
Family	-11.6416
PublicKey	-11.6416
Classpath	-11.6417
▁releases	-11.6418
▁vertical	-11.642
▁objectMapper	-11.642
mid	-11.642
Translation	-11.6421
TIMEOUT	-11.6421
Hi	-11.6422
ATTR	-11.6422
executor	-11.6423
▁anchor	-11.6425
ph	-11.6428
▁robot	-11.6428
ite	-11.6432
Trans	-11.6437
1()	-11.6438
methods	-11.6439
Loc	-11.644
▁iterations	-11.6441
hex	-11.6442
getCount	-11.6449
structure	-11.6452
3.0	-11.6454
76	-11.6461
addView	-11.6464
▁dummy	-11.6464
▁terminated	-11.6464
HttpResponse	-11.6466
Surface	-11.6466
▁Initialize	-11.6467
▁bs	-11.6468
artifact	-11.6472
▁mismatch	-11.6475
▁dy	-11.6476
Assign	-11.6483
ii	-11.6486
▁companyId	-11.6488
▁Collectors	-11.649
▁respective	-11.6492
▁Define	-11.6493
▁skipped	-11.6494
▁ui	-11.6496
MyObject	-11.6498
ny	-11.6499
CD	-11.65
300	-11.6502
▁Control	-11.6507
▁achieved	-11.6507
▁determines	-11.6507
▁#1	-11.6507
▁QueryUtil	-11.6515
longValue	-11.6515
getHost	-11.6515
ice	-11.6516
descriptor	-11.6518
Play	-11.6525
FXML	-11.6528
trigger	-11.6528
▁students	-11.653
ide	-11.6534
▁dateTime	-11.6534
▁EC	-11.6536
▁Import	-11.6536
▁optimized	-11.6538
▁leads	-11.6538
Checked	-11.654
WebDriver	-11.6541
VISIBLE	-11.6542
▁consists	-11.6544
ho	-11.6549
▁conflict	-11.6549
PrivateKey	-11.655
▁categories	-11.6555
79	-11.6555
readInt	-11.6557
OFFSET	-11.6557
Configurer	-11.656
generator	-11.6562
72	-11.6566
▁family	-11.657
hidden	-11.6574
ResourceBundle	-11.6576
▁csv	-11.6577
▁SomeClass	-11.658
▁VALUES	-11.658
getClient	-11.6582
▁stub	-11.6584
▁Information	-11.6585
▁absent	-11.6585
▁talk	-11.6586
▁"]	-11.6586
▁pseudo	-11.6587
RI	-11.6588
her	-11.6589
▁Settings	-11.6591
Find	-11.6593
sys	-11.6593
multiply	-11.6596
Speed	-11.6597
EX	-11.6602
ste	-11.6604
▁Thrown	-11.6605
abstract	-11.6606
▁Deletes	-11.6608
Fetch	-11.6613
named	-11.6614
getPort	-11.6614
delay	-11.6617
▁consumed	-11.6619
ClickListener	-11.6622
Viewer	-11.6622
000000	-11.6623
nr	-11.6625
-8"	-11.6627
Receive	-11.6628
bc	-11.6636
thing	-11.6639
getPage	-11.664
▁3.1	-11.6642
▁Though	-11.6644
joining	-11.6649
ever	-11.6649
▁Unit	-11.6658
▁Flux	-11.6658
seq	-11.666
▁BasicDBObject	-11.666
▁occurrence	-11.6665
publish	-11.6666
SpringBoot	-11.6668
▁sys	-11.667
LookAndFeel	-11.6674
textView	-11.6674
▁Engine	-11.6676
Opt	-11.6676
▁Compiler	-11.6678
Documents	-11.6679
▁Rest	-11.6679
?");	-11.6684
▁decrypt	-11.6684
▁JMX	-11.6686
▁workbook	-11.6687
identifier	-11.6688
TimeoutException	-11.6688
Orientation	-11.6689
RadioButton	-11.669
floor	-11.669
Launch	-11.669
Connected	-11.6693
▁Global	-11.6693
ASCII	-11.6694
Author	-11.6694
secret	-11.6696
▁RMI	-11.6699
▁balance	-11.6702
choice	-11.6705
▁advanced	-11.6706
▁visited	-11.6708
▁translated	-11.671
[0])	-11.6712
▁placeholder	-11.6713
provided	-11.6713
▁AlertDialog	-11.6714
▁Record	-11.6716
▁Inside	-11.6716
▁authenticate	-11.6716
JVM	-11.6717
workspace	-11.6721
▁salt	-11.6722
▁sw	-11.6724
▁confusion	-11.6726
MINUTE	-11.6727
▁straightforward	-11.6731
▁inserting	-11.6731
Js	-11.6732
').	-11.6736
setPreferredSize	-11.6736
▁invokes	-11.6736
▁encoder	-11.6737
City	-11.6738
▁reload	-11.6739
Flush	-11.6739
getConfiguration	-11.6739
ten	-11.674
Sink	-11.6741
▁ignoring	-11.6745
001	-11.6749
translate	-11.6755
Launcher	-11.6755
▁late	-11.6756
▁extremely	-11.6756
▁findBy	-11.6757
Sources	-11.6758
▁lowest	-11.676
high	-11.6761
setContext	-11.6768
▁runner	-11.677
▁pieces	-11.6775
Overlay	-11.6778
()]);	-11.6778
izer	-11.6781
▁Geometry	-11.6785
mkdirs	-11.6787
PE	-11.6787
ung	-11.6789
▁alone	-11.6791
setStatus	-11.6792
fromResponse	-11.6792
▁pipe	-11.6792
Subscriber	-11.6792
▁review	-11.6793
Duplicate	-11.6793
▁dep	-11.6794
throw	-11.6797
▁getIfc	-11.6798
loadClass	-11.6802
▁scaling	-11.6804
getGroup	-11.6804
▁clicking	-11.6805
▁dao	-11.6808
▁26	-11.6809
getLocal	-11.6809
▁10);	-11.681
Guess	-11.6811
CheckBox	-11.6812
▁kinds	-11.6818
OrBuilder	-11.6824
Ring	-11.6825
proc	-11.6826
5)	-11.6827
aaa	-11.6828
▁mess	-11.6829
▁Module	-11.6834
ef	-11.6841
▁payment	-11.6842
8,	-11.6842
QNAME	-11.6842
▁"'");	-11.6843
comparing	-11.6843
Ctx	-11.6846
Com	-11.6848
={	-11.6848
Struct	-11.6857
ran	-11.6858
managed	-11.6861
Indices	-11.6861
▁Register	-11.6861
▁ConcurrentHash	-11.6862
dot	-11.6864
▁Manifest	-11.6864
▁concurrently	-11.6865
▁Wikipedia	-11.6866
▁gone	-11.6872
+1;	-11.6872
▁Jenkins	-11.6872
▁displaying	-11.6873
▁effective	-11.6874
Replication	-11.6875
▁fraction	-11.6878
dst	-11.688
Watch	-11.6882
▁WebSocket	-11.6883
none	-11.6883
▁frames	-11.6885
▁Think	-11.6887
▁Execute	-11.6892
Aggregate	-11.6901
OUTPUT	-11.691
▁Unix	-11.6915
checkArgument	-11.6915
LOCK	-11.6917
11.	-11.6919
▁alignment	-11.6919
▁ie	-11.6922
Executable	-11.6922
TITLE	-11.6922
DT	-11.6923
▁race	-11.6924
▁transformed	-11.6929
PASSWORD	-11.6932
▁fn	-11.6933
]+)	-11.6933
LAST	-11.6933
ik	-11.6935
sax	-11.6935
▁ball	-11.6936
ov	-11.6937
▁scenarios	-11.6938
▁profiles	-11.6939
+1);	-11.6939
▁JDialog	-11.694
▁Further	-11.6941
▁bw	-11.6943
TIMESTAMP	-11.6943
Stmt	-11.6943
white	-11.6945
break	-11.6946
▁dirty	-11.6949
area	-11.6952
▁bundles	-11.6953
Secure	-11.6953
▁Timestamp	-11.6953
▁observer	-11.6954
▁bridge	-11.6955
Compat	-11.6956
▁alternatives	-11.6957
Defaults	-11.6959
addElement	-11.6961
▁connecting	-11.6961
▁Generates	-11.6964
Classifier	-11.6964
Packages	-11.6964
SUCCESS	-11.6965
Repeat	-11.6966
las	-11.6966
Rpc	-11.6968
getC	-11.6968
DOCUMENT	-11.6968
▁Never	-11.6969
Complex	-11.697
▁occurrences	-11.6971
Drag	-11.6973
▁percent	-11.6974
▁realm	-11.6975
▁develop	-11.6976
▁Creating	-11.6977
Dest	-11.6982
▁basis	-11.6984
▁micro	-11.6984
escape	-11.6985
room	-11.6986
Push	-11.6995
Margin	-11.6995
COL	-11.6999
Warning	-11.701
▁(1	-11.7013
▁Collector	-11.7014
CO	-11.7017
getTag	-11.7017
▁consist	-11.7018
▁precedence	-11.7018
▁concerned	-11.7018
▁ratio	-11.702
▁shard	-11.7021
▁Machine	-11.7021
Paragraph	-11.7025
persist	-11.7029
Benchmark	-11.703
▁paste	-11.7031
▁polling	-11.7031
mask	-11.7031
▁finishes	-11.7034
▁noted	-11.7035
netSocketAddress	-11.7035
▁Services	-11.7042
▁backwards	-11.7044
▁advise	-11.7044
getLocale	-11.7044
JDBC	-11.7046
external	-11.7047
okhttp	-11.7048
Quantity	-11.705
▁modifiers	-11.7051
Upgrade	-11.7056
Hub	-11.7057
snippet	-11.7058
[3];	-11.7059
(0	-11.706
RandomAccessFile	-11.7061
▁Tag	-11.7064
▁Canvas	-11.7064
Sentence	-11.7065
▁ahead	-11.7067
▁revision	-11.7068
monitor	-11.707
Man	-11.7071
Indexes	-11.7072
▁readability	-11.7074
KeyValue	-11.7074
-1,	-11.7077
▁discovered	-11.7085
Idle	-11.7085
connector	-11.7086
Procedure	-11.7086
▁FlowLayout	-11.7087
Average	-11.7088
dao	-11.7088
Facet	-11.709
Injector	-11.7092
▁Line	-11.7094
DC	-11.7094
▁hints	-11.7095
wsdl	-11.7098
▁saw	-11.7099
▁triggers	-11.71
Infos	-11.7102
="#	-11.7106
▁docker	-11.711
▁mc	-11.711
ot	-11.7112
uck	-11.7114
▁CDI	-11.7117
ped	-11.7119
ub	-11.7119
▁particularly	-11.7123
▁unlikely	-11.7124
▁looping	-11.7126
XmlElementDecl	-11.7128
Commerce	-11.7128
blocking	-11.7133
Decorator	-11.7133
▁fetching	-11.7134
direction	-11.7136
Proposal	-11.7138
Queries	-11.7138
WebView	-11.714
help	-11.7142
1+	-11.7148
editor	-11.7148
ini	-11.7149
▁DNS	-11.7151
\",\"	-11.7155
8)	-11.7156
son	-11.7157
('\	-11.7157
depth	-11.7158
Normal	-11.7158
▁alarm	-11.716
▁8;	-11.7162
pom	-11.7162
Clone	-11.7163
Relationship	-11.7163
Photo	-11.7164
▁JAXBContext	-11.7164
ToBe	-11.7165
▁endpoints	-11.7166
signature	-11.7167
▁exposed	-11.7171
▁chat	-11.7173
Formula	-11.7174
(4,	-11.7176
Requested	-11.7176
▁onCreateView	-11.7178
criteria	-11.7179
ration	-11.718
▁Mongo	-11.7181
▁DataInputStream	-11.7181
trans	-11.7181
▁wants	-11.7188
▁transparent	-11.7188
addContent	-11.7189
▁scoped	-11.7189
PhoneNumber	-11.7191
FAILED	-11.7191
Increment	-11.7199
StackSize	-11.7199
▁technology	-11.7201
although	-11.7203
launcher	-11.7205
objects	-11.7207
▁vault	-11.7209
destroy	-11.7209
getTransaction	-11.7209
getTotal	-11.721
▁arithmetic	-11.7212
▁editing	-11.7213
Ui	-11.7214
WEEK	-11.7217
▁Ovh	-11.7217
Mapped	-11.7218
rad	-11.7219
putString	-11.7222
Conversation	-11.7222
▁opposed	-11.7222
Prev	-11.7223
Embedded	-11.7231
hasNextLine	-11.7233
▁published	-11.7233
scala	-11.7234
Cal	-11.7234
▁mis	-11.7235
margin	-11.7238
geometry	-11.7239
2>	-11.7239
DR	-11.7239
▁conversation	-11.7243
Expand	-11.7244
▁Layout	-11.7245
▁choices	-11.7246
mongodb	-11.725
don	-11.7251
ning	-11.7255
▁posting	-11.7256
▁orientation	-11.7258
▁union	-11.726
Slice	-11.7264
▁typing	-11.7264
▁Hadoop	-11.7267
myapp	-11.7267
▁clip	-11.7268
Vars	-11.7269
▁organization	-11.7271
Alarm	-11.7272
▁AOP	-11.7274
Vec	-11.7281
=/	-11.7282
createStatement	-11.7283
LinkedList	-11.7284
getCode	-11.7287
Signal	-11.729
getElementsByTag	-11.7291
▁mv	-11.7295
JDK	-11.7298
▁Rather	-11.7301
▁Dependency	-11.7302
▁ResourceBundle	-11.7303
VO	-11.7305
88	-11.7306
▁walk	-11.7306
Compiler	-11.7309
▁hello	-11.7311
▁POI	-11.7314
▁aggregation	-11.7314
▁paragraph	-11.732
Ready	-11.7322
▁Tutorial	-11.7323
{"	-11.7323
5.	-11.7324
Std	-11.7324
ture	-11.7325
ks	-11.7327
▁useless	-11.7327
▁Typically	-11.7328
▁nature	-11.7329
apple	-11.733
▁affected	-11.733
▁photo	-11.7331
roadcastReceiver	-11.7333
▁JSONException	-11.7333
fl	-11.7333
Horizontal	-11.7335
▁elsewhere	-11.7335
Equal	-11.7336
▁asset	-11.7337
▁0.1	-11.7339
FROM	-11.7343
▁committed	-11.7345
▁fr	-11.7346
▁cr	-11.7347
▁Performs	-11.7348
▁fall	-11.7348
Syntax	-11.7348
INPUT	-11.7355
theme	-11.7355
repeat	-11.7355
▁splitting	-11.7356
▁cards	-11.7358
▁deserialization	-11.7358
Go	-11.7361
ber	-11.7362
▁secondary	-11.7363
▁bulk	-11.7363
Special	-11.7364
PostConstruct	-11.7373
graphics	-11.7374
setContentType	-11.7374
▁eliminate	-11.7375
▁stat	-11.7375
basic	-11.7376
getBody	-11.7377
NullPointer	-11.7379
Registered	-11.738
STREAM	-11.7381
▁AssertionError	-11.7381
▁Must	-11.7382
▁referred	-11.7383
▁partitions	-11.7383
▁normalize	-11.7384
arch	-11.7384
▁marks	-11.7387
che	-11.7389
▁loc	-11.7389
setFont	-11.739
▁commented	-11.7391
failure	-11.7392
roll	-11.7396
Publisher	-11.7402
Caller	-11.7402
▁tend	-11.7402
att	-11.7403
▁dedicated	-11.7404
▁Install	-11.7406
▁checkbox	-11.7407
1.5	-11.7408
▁till	-11.7409
98	-11.7409
Partial	-11.7409
Jobs	-11.7411
▁"-"	-11.7414
▁held	-11.7414
priority	-11.7414
Numeric	-11.7415
▁sudo	-11.7418
=2;	-11.7419
▁LocalTime	-11.742
▁Suppose	-11.742
via	-11.7422
▁Microsoft	-11.7423
▁exclusive	-11.7423
sheet	-11.7426
▁calc	-11.7426
Policies	-11.7429
program	-11.743
▁excluded	-11.743
radius	-11.7432
▁"0"	-11.7434
▁grammar	-11.7437
reparedStatement	-11.744
Until	-11.7442
Hierarchy	-11.7445
exchange	-11.745
Help	-11.745
62	-11.7454
spinner	-11.7455
IllegalAccess	-11.7456
▁ca	-11.7456
▁machines	-11.7457
▁callable	-11.7461
▁intercept	-11.7462
▁overload	-11.7462
der	-11.7463
▁weak	-11.7464
▁moves	-11.7466
(""))	-11.7466
(5);	-11.7466
▁inverse	-11.7467
must	-11.7469
▁Normally	-11.7472
RETURN	-11.7472
Soap	-11.7472
va	-11.7474
▁restriction	-11.7475
Previous	-11.7476
ReadOnly	-11.7477
izable	-11.7482
Fixed	-11.7486
Song	-11.7488
OAuth	-11.749
▁Lambda	-11.7494
▁notifications	-11.7496
getEnd	-11.7497
-12	-11.7497
getAddress	-11.7498
CmsStringUtil	-11.75
EEnum	-11.75
▁packageName	-11.75
fxml	-11.7501
RGB	-11.7503
▁msgs	-11.7504
getIdentifier	-11.7506
Mgr	-11.7506
Rel	-11.7507
getTask	-11.7507
▁checksum	-11.7508
big	-11.7509
▁dbc	-11.7509
▁grow	-11.7511
though	-11.7514
")).	-11.7518
▁LA	-11.7518
="1"	-11.752
kind	-11.752
DOUBLE	-11.752
ob	-11.7522
NetworkInterface	-11.7523
▁expanded	-11.7523
(0))	-11.7525
▁'/'	-11.7527
ative	-11.7527
▁Apparently	-11.7531
▁stable	-11.7532
▁ugly	-11.7537
Anchor	-11.7538
▁Core	-11.7538
urn	-11.754
Dim	-11.7541
Bad	-11.7541
▁longitude	-11.7542
TOP	-11.7543
▁reports	-11.7543
Tokenizer	-11.7543
ServiceImpl	-11.7546
▁jp	-11.7546
isNullOrEmpty	-11.7547
Square	-11.7549
hostname	-11.755
[1].	-11.755
contact	-11.7554
yy	-11.7555
▁former	-11.7555
Mod	-11.7555
mockito	-11.7558
ThreadPool	-11.7563
cu	-11.7564
browser	-11.7565
finish	-11.7568
Mouse	-11.7568
▁256	-11.7569
68	-11.757
▁identifiers	-11.757
nl	-11.757
▁dog	-11.7572
face	-11.7573
-5	-11.7575
▁typo	-11.7576
▁leaving	-11.7577
▁illegal	-11.7578
▁servlets	-11.7579
▁restrictions	-11.758
▁urls	-11.7584
stackSize	-11.7586
▁emit	-11.7587
InetAddress	-11.7588
pane	-11.7588
▁estimate	-11.7588
▁wraps	-11.759
WebService	-11.759
Rec	-11.7591
dbc	-11.7592
gr	-11.7595
▁fetched	-11.7597
JSONException	-11.7598
▁advance	-11.7599
Comparison	-11.7602
DataSetChanged	-11.7602
LocalizedMessage	-11.7603
▁correspond	-11.7604
NORMAL	-11.7607
Minutes	-11.7608
rb	-11.7608
▁interaction	-11.7609
▁De	-11.7611
are	-11.7611
Buttons	-11.7616
[]{"	-11.7618
SchedulerSupport	-11.7619
▁IBM	-11.7623
Tenant	-11.7624
numRows	-11.7625
calculate	-11.7626
▁subscribe	-11.7627
HttpMessage	-11.7629
constant	-11.7629
VarReturnType	-11.7629
▁compact	-11.7629
▁operands	-11.7631
Reverse	-11.7635
OPTS	-11.7636
▁dx	-11.7638
▁libs	-11.7639
▁2.2	-11.764
▁popular	-11.764
pad	-11.764
Force	-11.7643
RequestProperty	-11.7644
getDouble	-11.7644
▁backed	-11.7645
LEVEL	-11.7645
▁stuck	-11.7646
getS	-11.7647
▁nums	-11.7648
▁Implement	-11.7648
Difference	-11.7648
▁appId	-11.7653
XmlRootElement	-11.7656
▁prefs	-11.7657
Cause	-11.7658
▁**	-11.766
▁simplified	-11.7662
51	-11.7662
catalina	-11.7662
▁Called	-11.7664
Transformation	-11.7665
lower	-11.7667
letter	-11.7669
MY	-11.767
normalize	-11.7674
▁controllers	-11.7674
openStream	-11.7677
▁concern	-11.7678
▁responsibility	-11.7678
▁spot	-11.768
▁refactor	-11.768
▁migration	-11.7681
Health	-11.7681
▁Block	-11.7687
(4);	-11.7688
maybe	-11.769
▁sharing	-11.769
:"+	-11.7694
▁switching	-11.7697
▁Callback	-11.77
primary	-11.7702
AP	-11.7703
▁speaking	-11.7703
▁closes	-11.7704
▁accountName	-11.7704
References	-11.7704
▁4:	-11.7706
▁instantiation	-11.7706
vert	-11.7707
Phrase	-11.7707
▁authenticated	-11.7708
▁ajax	-11.7709
*"	-11.7709
▁audit	-11.7712
▁Reflection	-11.7712
▁Similarly	-11.7712
question	-11.7712
▁meet	-11.7712
XPath	-11.7714
▁HttpSession	-11.7715
▁OpenGL	-11.7715
ajax	-11.7716
aka	-11.7716
▁drawn	-11.7717
Dist	-11.7717
symbol	-11.7717
Bridge	-11.7717
▁1000;	-11.7719
▁subtract	-11.7719
LI	-11.7722
MAIN	-11.7722
▁pid	-11.7725
▁appender	-11.7726
▁Scheduled	-11.7729
bindings	-11.7733
Ljava	-11.7734
▁layers	-11.7735
▁Many	-11.7736
▁22	-11.7737
Parsed	-11.7737
▁cols	-11.7738
▁Sometimes	-11.7739
Resolve	-11.774
▁Finds	-11.7741
era	-11.7744
▁overloaded	-11.7744
Analyzer	-11.7745
helper	-11.7746
=2	-11.7746
AR	-11.7747
another	-11.7748
74	-11.7748
mit	-11.7749
▁pivot	-11.7749
<%@	-11.775
▁Show	-11.7751
errors	-11.7752
▁sec	-11.7755
Pairs	-11.7757
▁dispatcher	-11.7758
▁precise	-11.7759
0.5	-11.7761
Review	-11.7761
INTERNAL	-11.7761
pkg	-11.7763
▁Better	-11.7765
HEIGHT	-11.7767
enqueue	-11.7769
▁alternate	-11.777
Pressed	-11.7771
Bag	-11.7771
ppCompatActivity	-11.7773
▁Personally	-11.7774
Logic	-11.7775
▁epoch	-11.7782
▁collision	-11.7783
▁unused	-11.7784
definition	-11.7785
Into	-11.7785
Drawer	-11.7788
▁waits	-11.7789
ElementType	-11.7791
▁fixes	-11.7791
License	-11.7793
Instruction	-11.7794
▁coll	-11.7794
▁-1,	-11.7796
tableName	-11.78
ADDRESS	-11.78
▁sockets	-11.7801
gif	-11.7802
▁ServerSocket	-11.7803
▁breaking	-11.7803
▁story	-11.7803
getSub	-11.7804
Here	-11.7812
▁leaf	-11.7814
Dis	-11.7814
Cloud	-11.7815
▁gui	-11.7818
▁ModelAndView	-11.7827
▁ports	-11.7827
▁jsonArray	-11.7828
▁Extract	-11.7828
ray	-11.783
Inline	-11.7831
Digest	-11.7831
BoundingBox	-11.7833
▁calculations	-11.7834
EDIT	-11.7838
▁latitude	-11.7838
newArrayList	-11.7839
Templates	-11.7839
CHECK	-11.7839
▁downstream	-11.784
cxf	-11.7842
Enumeration	-11.7842
▁channels	-11.7843
▁smart	-11.7844
&#39;	-11.7845
toHexString	-11.7845
▁Sorry	-11.7845
▁selecting	-11.7847
nn	-11.7853
ised	-11.7862
fn	-11.7863
▁Regex	-11.7864
▁Management	-11.7865
▁localhost	-11.7868
▁analyze	-11.7869
▁Dialog	-11.787
BC	-11.7872
..."	-11.7873
999	-11.7873
GA	-11.7876
▁im	-11.7877
vo	-11.7878
▁callbacks	-11.788
▁envelope	-11.7881
OFF	-11.7881
candidate	-11.7882
▁INDArray	-11.7882
SPACE	-11.7882
▁endIndex	-11.7883
getProject	-11.7885
PathVariable	-11.7887
acc	-11.7888
Toast	-11.7889
▁Validator	-11.7893
AN	-11.7897
ser	-11.7898
▁overlap	-11.7899
Self	-11.7901
onActivityResult	-11.7901
executeRequest	-11.7905
Estimate	-11.7906
"}	-11.7906
ek	-11.7907
PARAMETER	-11.7908
Tail	-11.7909
▁Pass	-11.791
▁express	-11.7912
▁breaks	-11.7913
FileFilter	-11.7914
▁python	-11.7915
2]	-11.7915
▁>}	-11.7915
▁Executor	-11.7917
design	-11.7921
▁players	-11.7921
▁META	-11.7922
EventType	-11.7922
dialect	-11.7923
▁RestTemplate	-11.7925
GeneratedValue	-11.7929
ipEntry	-11.7929
▁Enter	-11.7931
▁sensitive	-11.7933
▁navigate	-11.7942
▁Parser	-11.7944
Delivery	-11.7944
▁marshaller	-11.7945
▁{...}	-11.7945
Unavailable	-11.7947
attachment	-11.7947
CDATA	-11.7947
2</	-11.7949
worker	-11.7951
▁rhs	-11.7953
Jackson	-11.7958
Low	-11.7958
▁closer	-11.7958
LS	-11.7959
own	-11.796
IDs	-11.796
▁RAM	-11.7962
▁MediaType	-11.7962
▁TextField	-11.7964
▁concepts	-11.7964
83	-11.7966
Resolved	-11.7968
>";	-11.797
mission	-11.7971
▁ring	-11.7974
utils	-11.7976
cap	-11.7979
rel	-11.798
Restore	-11.7981
Djava	-11.7982
Stock	-11.7984
Original	-11.7985
Fire	-11.7985
ANY	-11.7986
Requests	-11.7986
rg	-11.7988
▁codec	-11.799
▁xsi	-11.799
(1000);	-11.7991
CF	-11.7992
getRecord	-11.7993
Picker	-11.7996
Dom	-11.7997
}",	-11.7998
OPTIONS	-11.8002
Handling	-11.8002
lastName	-11.8004
▁Generics	-11.8007
same	-11.8012
▁firewall	-11.8013
2[	-11.8018
INIT	-11.8019
ORDER	-11.8021
▁Immutable	-11.8024
nz	-11.8024
codec	-11.8025
putInt	-11.8026
▁cc	-11.8028
▁compares	-11.8028
▁protect	-11.803
▁const	-11.8031
▁pi	-11.8033
black	-11.8033
bound	-11.8035
LD	-11.8035
▁ii	-11.8036
▁vice	-11.8039
▁pe	-11.8039
73	-11.8044
Ordered	-11.8044
▁meaningful	-11.8047
beginTransaction	-11.8047
BLACK	-11.8048
QueryBuilder	-11.8049
▁Explanation	-11.805
correct	-11.8054
Bulk	-11.8059
ure	-11.8061
▁shadow	-11.8064
▁WebDriverWait	-11.8066
checked	-11.8067
padding	-11.8067
dep	-11.8068
Steps	-11.8071
rules	-11.8071
▁subscriber	-11.8071
selection	-11.8072
Router	-11.8073
Nested	-11.8074
CM	-11.8076
Combo	-11.8078
exclusions	-11.8079
DISPLAY	-11.8082
cr	-11.8087
squareup	-11.8088
▁scanning	-11.8088
Red	-11.8089
General	-11.8091
addHeader	-11.8094
▁imageView	-11.8095
lit	-11.8096
Black	-11.8096
Business	-11.8096
NON	-11.8098
▁10000	-11.8098
TypeAdapter	-11.8104
▁happy	-11.8105
91	-11.8105
orm	-11.8108
Cart	-11.8109
alert	-11.811
Utf	-11.811
▁carefully	-11.8114
Representation	-11.8117
▁strong	-11.8117
▁255	-11.8118
▁Chrome	-11.8118
▁tf	-11.812
Where	-11.8121
▁Tools	-11.8123
light	-11.8123
tic	-11.8124
af	-11.8124
▁UIManager	-11.8125
closed	-11.8129
▁Issue	-11.8131
Serial	-11.8132
Aggregation	-11.8133
getID	-11.8134
JOB	-11.8138
▁invalidate	-11.8138
*)	-11.814
bitmap	-11.8149
▁told	-11.8157
CSV	-11.8158
▁attributeName	-11.8159
og	-11.8162
horizontal	-11.8164
addProperty	-11.8165
St	-11.8174
▁JARs	-11.8179
▁increasing	-11.818
▁grade	-11.8183
▁SHA	-11.8187
github	-11.8189
rect	-11.819
Configs	-11.819
▁Non	-11.8193
Actual	-11.8194
databind	-11.8197
Google	-11.8198
▁Best	-11.8199
EN	-11.82
▁mat	-11.82
▁critical	-11.8203
▁hi	-11.8204
divide	-11.8204
attach	-11.8206
▁distinguish	-11.821
▁forms	-11.8211
Pin	-11.8211
▁ancestor	-11.8212
▁Big	-11.8214
▁Gregorian	-11.8216
▁rc	-11.8216
rank	-11.8217
▁featureID	-11.8217
▁arraylist	-11.8219
▁restrict	-11.8219
▁updateresource	-11.8223
findAll	-11.8224
▁Firefox	-11.8226
▁validated	-11.8227
parsed	-11.8229
isTraceOn	-11.8232
▁Utility	-11.8233
▁Frame	-11.8236
soap	-11.8238
geo	-11.8238
DF	-11.8239
▁yield	-11.8239
3",	-11.8239
▁WSDL	-11.8241
▁deadlock	-11.8248
ko	-11.8248
contentType	-11.8248
OkT	-11.8253
dimensional	-11.8255
codehaus	-11.8256
▁tick	-11.826
catalog	-11.826
▁wiki	-11.8261
CALL	-11.8262
Touch	-11.8263
▁win	-11.8263
▁counting	-11.8264
▁TimerTask	-11.8266
CURRENT	-11.8267
▁PKCS	-11.8267
92	-11.8267
▁reproduce	-11.8267
Compound	-11.8269
▁ant	-11.8269
Append	-11.8271
jo	-11.8272
▁backslash	-11.8272
rp	-11.8276
profiles	-11.8276
▁FileUtils	-11.8277
▁curve	-11.8277
▁encounter	-11.8277
throwF	-11.8282
▁ORM	-11.8282
▁casFeat	-11.8283
(1),	-11.8283
YES	-11.8283
appendChild	-11.8284
▁'0'	-11.8286
Gson	-11.8289
ess	-11.8292
▁percentage	-11.8293
packaging	-11.8294
groovy	-11.8299
Ms	-11.8303
▁Support	-11.8303
▁bool	-11.8305
What	-11.8305
▁mixed	-11.8306
+1,	-11.8309
Bootstrap	-11.8313
ram	-11.8314
101	-11.8315
Jms	-11.8317
LocalDateTime	-11.8319
▁coverage	-11.8319
93	-11.8321
\\\\	-11.8322
Characters	-11.8322
FieldType	-11.8324
Lower	-11.8326
lc	-11.8326
ade	-11.8326
▁strictly	-11.8327
CSS	-11.8328
marker	-11.8329
Roll	-11.833
▁ob	-11.8331
factor	-11.8333
▁impl	-11.8334
repo	-11.8334
ev	-11.8335
▁toolbar	-11.8336
inc	-11.834
SinglePage	-11.8341
[\\	-11.8348
▁accounts	-11.8349
9,	-11.835
▁uppercase	-11.835
▁edited	-11.8351
▁scores	-11.8353
RecyclerView	-11.8356
▁90	-11.8357
▁MotionEvent	-11.8358
events	-11.8358
Locations	-11.8358
FILTER	-11.8359
UserName	-11.8359
rr	-11.8363
▁scopes	-11.8363
between	-11.8363
}");	-11.8367
▁StackOverflow	-11.8367
dv	-11.8368
▁Determines	-11.8369
isBlank	-11.8369
EC	-11.837
Pages	-11.8372
▁-1);	-11.8372
Modules	-11.8376
au	-11.8377
BAD	-11.8379
▁mocking	-11.8381
startup	-11.8382
▁personal	-11.8382
IAtomContainer	-11.8382
Terms	-11.8383
▁candidates	-11.8383
▁6)	-11.8384
High	-11.8386
launch	-11.8386
▁suite	-11.8387
detail	-11.8387
▁CLASSPATH	-11.8388
getWindow	-11.8388
mainClass	-11.8393
▁Lock	-11.8394
Functions	-11.8395
WRAP	-11.8398
▁evaluates	-11.8399
STORE	-11.84
▁solves	-11.84
Meter	-11.8401
FIRST	-11.8401
▁shut	-11.8402
FOR	-11.8404
▁Serialization	-11.8407
See	-11.8409
retrieve	-11.841
▁interpret	-11.841
Patterns	-11.841
▁flat	-11.8411
sList	-11.8412
metrics	-11.8413
▁triangle	-11.8414
pointer	-11.8416
▁mandatory	-11.8418
1</	-11.8422
▁uploaded	-11.8425
▁asynchronously	-11.8426
Starting	-11.8426
DOM	-11.8428
fd	-11.8429
toURI	-11.843
▁facet	-11.843
Pr	-11.8433
▁Closeable	-11.8433
Jdbc	-11.8434
▁emulator	-11.8437
Journal	-11.8437
▁BoxLayout	-11.8438
hr	-11.844
▁MediaPlayer	-11.8442
▁phrase	-11.8443
Authenticator	-11.8443
▁sprite	-11.8445
87	-11.8445
▁StringReader	-11.8447
Segments	-11.845
▁versionId	-11.8455
▁9,	-11.8456
▁JFileChooser	-11.8456
HOST	-11.8458
Codes	-11.8458
mer	-11.846
▁idle	-11.8462
}";	-11.8464
▁theory	-11.8471
Topology	-11.8473
ofNullable	-11.8476
fac	-11.8476
▁SET	-11.8478
{2}	-11.8479
▁IPv	-11.8483
ServiceClient	-11.8484
Switch	-11.8484
▁leaves	-11.8486
61	-11.849
Capabilities	-11.849
▁Paint	-11.8491
▁pad	-11.8491
▁buckets	-11.8491
ck	-11.8494
!"	-11.8499
(.*)	-11.8499
FLOAT	-11.8502
▁NO	-11.8502
▁LDAP	-11.8503
▁Super	-11.8504
▁Developer	-11.8504
git	-11.8506
Shard	-11.8507
Workbook	-11.8507
operator	-11.8507
Pro	-11.851
getConstructor	-11.8512
Was	-11.8512
Replacement	-11.8512
▁Filtering	-11.8514
capacity	-11.8515
Coordinates	-11.8516
UIManager	-11.8517
struct	-11.852
Views	-11.8521
▁animal	-11.8523
LT	-11.8525
▁replaces	-11.8525
▁powerful	-11.8526
pm	-11.8528
rollback	-11.8529
▁Compare	-11.853
Pixels	-11.8533
▁fits	-11.8534
▁managers	-11.8535
Diagnostic	-11.8537
Cycle	-11.8537
QUERY	-11.8538
▁reliable	-11.8538
setup	-11.854
ENABLED	-11.854
▁braces	-11.854
Sent	-11.8544
atMissing	-11.8544
Rotation	-11.8544
▁layouts	-11.8546
Transient	-11.855
PC	-11.855
getBase	-11.855
ANT	-11.8552
▁Coordinate	-11.8552
▁fault	-11.8552
▁configuring	-11.8557
1.2	-11.8557
Prime	-11.8559
pal	-11.8564
▁1))	-11.8568
▁unfortunately	-11.8569
▁reachable	-11.8572
▁GitHub	-11.8574
▁vendor	-11.8578
▁probability	-11.8583
How	-11.8587
getInput	-11.8589
▁opposite	-11.8591
▁Menu	-11.8594
FULL	-11.8594
Locked	-11.8595
▁optionally	-11.8596
ud	-11.8596
▁presence	-11.8597
plan	-11.8602
period	-11.8605
BYTES	-11.8606
OutOfMemoryError	-11.8607
Clicked	-11.8607
▁drivers	-11.8608
▁incorrectly	-11.861
▁capable	-11.8611
0.00	-11.8612
days	-11.8617
TA	-11.862
best	-11.8622
0"	-11.8626
-8"));	-11.8628
▁Full	-11.863
Shutdown	-11.863
▁relationships	-11.8632
Nav	-11.8633
getPassword	-11.8633
kernel	-11.8634
Beans	-11.8637
-8")	-11.864
yml	-11.8641
UserId	-11.8643
WithHttp	-11.8644
extra	-11.8645
:+	-11.8646
▁decoder	-11.8647
firebase	-11.8648
Design	-11.8651
Histogram	-11.8653
▁Device	-11.8653
Hit	-11.8655
▁processors	-11.8655
▁accurate	-11.8656
interfaces	-11.8657
ipFile	-11.8657
▁Give	-11.866
getColumnIndex	-11.8661
▁CA	-11.8662
Mat	-11.8662
▁Exceptions	-11.8663
Sp	-11.8664
Ok	-11.8665
ster	-11.8666
▁capturing	-11.8667
▁columnName	-11.8667
▁signatures	-11.867
Cmd	-11.8674
gmail	-11.8675
▁Facebook	-11.8677
also	-11.8681
▁friend	-11.8685
UnsupportedE	-11.8692
1));	-11.8692
doSomething	-11.8693
▁worse	-11.8695
MQ	-11.8696
▁Moreover	-11.8696
green	-11.8696
outputDirectory	-11.8697
▁benchmark	-11.8701
▁instantiating	-11.8701
▁MojoExecution	-11.8701
Tools	-11.8702
▁5.	-11.8704
▁Section	-11.8705
▁refactoring	-11.8707
Plus	-11.8708
▁spark	-11.871
[\	-11.8712
ION	-11.8713
ln	-11.8717
▁benefits	-11.8719
▁Implementation	-11.8719
lk	-11.8719
ACTIVITY	-11.8719
RES	-11.872
▁jcasType	-11.8724
▁conform	-11.8725
▁JCudaDriver	-11.8726
▁rev	-11.8729
millis	-11.8729
▁verification	-11.8729
Reg	-11.8731
▁traffic	-11.8731
["	-11.8732
Reset	-11.8733
sa	-11.8736
▁soap	-11.8737
00000000	-11.874
▁reg	-11.8742
▁caches	-11.8743
TARGET	-11.8744
▁hashmap	-11.8746
ras	-11.8746
strings	-11.8746
▁iText	-11.8747
▁CascadeType	-11.8749
Course	-11.8749
BIT	-11.8752
▁groovy	-11.8753
▁Types	-11.8758
▁indicated	-11.8761
▁Mock	-11.8764
naming	-11.8765
Stub	-11.877
▁About	-11.8771
pn	-11.8772
listeners	-11.8775
▁\""	-11.8775
ense	-11.8781
▁quoted	-11.8782
Notify	-11.8785
Recursive	-11.8785
▁unicode	-11.8787
hour	-11.8787
▁playing	-11.8788
▁acc	-11.8789
1.1	-11.879
▁deserializer	-11.8791
▁transactional	-11.8791
!!!	-11.8795
▁factors	-11.8795
Faces	-11.8795
par	-11.8797
EventHandler	-11.8798
CT	-11.8798
1_	-11.8801
▁Quick	-11.8802
▁doGet	-11.8803
columnName	-11.8806
Decode	-11.881
▁Changing	-11.8811
workplace	-11.8812
getClassName	-11.8813
Initialized	-11.8815
!",	-11.8816
▁Apply	-11.882
10000	-11.882
Maven	-11.8823
94	-11.8823
Acc	-11.8824
isNull	-11.8825
origin	-11.8827
DM	-11.8828
Sid	-11.8828
ColumnName	-11.8828
getParameters	-11.8828
▁central	-11.8829
▁shortcut	-11.883
111	-11.8831
▁"",	-11.8833
FACTORY	-11.8834
ready	-11.8836
▁browsers	-11.8837
▁PendingIntent	-11.8837
▁alive	-11.8837
▁tabs	-11.8837
▁grouping	-11.8841
▁8.	-11.8841
bg	-11.8842
▁Configure	-11.8842
Throw	-11.8845
rotate	-11.8846
▁Criteria	-11.8849
▁Word	-11.8852
Generation	-11.8853
dismiss	-11.8859
▁getIntent	-11.8859
▁consuming	-11.8861
Streams	-11.8862
je	-11.8864
lex	-11.8869
Bin	-11.8869
▁quantity	-11.887
▁exits	-11.8871
Outer	-11.8874
ActionBar	-11.8875
▁plot	-11.8876
▁detection	-11.8877
ient	-11.8878
Fast	-11.8878
isSelected	-11.8878
▁immediate	-11.8879
("{	-11.8888
▁Specifically	-11.8898
▁SSLContext	-11.89
processing	-11.89
ProgressBar	-11.8901
NT	-11.8905
welcome	-11.8906
▁heavy	-11.8907
▁datastore	-11.8909
Discount	-11.8909
▁flexibility	-11.891
getChannel	-11.8911
▁vary	-11.8911
BorderLayout	-11.8913
▁Close	-11.8915
su	-11.8916
RULE	-11.8917
Restrictions	-11.8917
orders	-11.8918
▁Flowable	-11.8919
portal	-11.8923
TT	-11.8924
▁[%	-11.8926
▁cleared	-11.8926
▁constructing	-11.8927
EntityType	-11.8927
▁elapsed	-11.8931
Temporal	-11.8931
bus	-11.8932
basedir	-11.8935
▁intend	-11.8935
▁destroyed	-11.8936
Mean	-11.8938
▁Could	-11.8938
fast	-11.8941
RequestBuilder	-11.8943
▁Draw	-11.8944
▁styles	-11.8945
▁covers	-11.8945
[5]	-11.8947
▁EventQueue	-11.8948
Compile	-11.8949
▁sessionFactory	-11.8951
PropertyType	-11.8952
▁integrate	-11.8955
▁Firstly	-11.8957
Shadow	-11.896
▁activate	-11.8961
▁money	-11.8963
▁downloading	-11.8963
▁GMT	-11.8964
getOffset	-11.8964
▁outcome	-11.8965
Unmarshaller	-11.8966
numCols	-11.8968
gax	-11.8969
8.0	-11.8972
▁CloudException	-11.8973
▁towards	-11.8974
Gui	-11.8976
▁alphabet	-11.8977
▁Outer	-11.8977
▁signing	-11.8978
▁prove	-11.8978
▁omit	-11.898
▁assertThat	-11.8981
▁five	-11.8983
▁en	-11.8987
<!--	-11.8989
either	-11.8991
Geo	-11.8993
PDF	-11.8994
▁Ctrl	-11.8997
▁Cluster	-11.8997
CONNECTION	-11.8998
▁MessageDigest	-11.8998
▁everywhere	-11.8998
sym	-11.9003
▁escaping	-11.9008
|\\	-11.901
3");	-11.9011
▁stdout	-11.9013
fine	-11.9015
▁localName	-11.9015
▁Solved	-11.9016
▁possibilities	-11.9016
▁queues	-11.9017
Injection	-11.9017
▁sink	-11.9022
▁attention	-11.9023
▁embed	-11.9023
▁emits	-11.9023
Power	-11.9024
getItems	-11.9027
▁pro	-11.9027
▁Okay	-11.9029
whatever	-11.903
▁Circle	-11.903
▁minus	-11.9036
▁WebApplication	-11.9036
getToken	-11.9039
▁Cat	-11.9041
Plain	-11.9041
▁AES	-11.9042
▁HttpPost	-11.9042
▁1000);	-11.9047
getOutput	-11.9048
resultSet	-11.905
▁lies	-11.905
▁tolerance	-11.905
getWriter	-11.9052
getSelectedItem	-11.9053
Flat	-11.9053
getPosition	-11.9053
2")	-11.9055
Violation	-11.9057
▁!(	-11.9059
Soft	-11.906
▁Such	-11.9061
▁Instantiation	-11.9062
Grade	-11.9065
▁sin	-11.9068
DESCRIPTION	-11.9073
Fn	-11.9074
&#	-11.9076
▁20,	-11.9078
▁Api	-11.9086
▁nullable	-11.9087
1]	-11.909
▁relies	-11.9093
▁bother	-11.9093
ofPattern	-11.9098
▁RSA	-11.9098
Scalar	-11.9101
▁realize	-11.9102
GroupId	-11.9104
▁linux	-11.9105
Operand	-11.9106
additional	-11.9107
az	-11.9108
SB	-11.9108
▁PC	-11.911
▁concatenate	-11.9111
FileInputStream	-11.9111
ClientException	-11.9112
▁Whenever	-11.9114
▁0))	-11.9116
▁Modify	-11.9116
MSG	-11.9119
Drop	-11.9119
Cli	-11.9122
ically	-11.9123
compress	-11.9124
▁pkg	-11.9124
Fraction	-11.9127
look	-11.9127
isInstance	-11.9129
PACKAGE	-11.913
define	-11.9133
replaceFirst	-11.9133
CI	-11.9134
▁arrayList	-11.9134
IT	-11.9134
▁clearer	-11.9135
setMessage	-11.9137
except	-11.9139
KB	-11.9141
isEnabled	-11.9141
PLAIN	-11.9144
▁experiment	-11.9144
Ranges	-11.9145
================	-11.9147
▁100);	-11.9148
▁Injection	-11.915
▁28	-11.9152
▁expired	-11.9153
Tests	-11.9154
SH	-11.9158
includes	-11.9159
Contacts	-11.916
▁fi	-11.9161
▁Parameterized	-11.9166
Boundary	-11.9168
registry	-11.9171
ITEM	-11.9172
Chat	-11.9173
balance	-11.9174
Arn	-11.9174
▁TLS	-11.9175
▁proxies	-11.9175
assign	-11.9176
▁Computes	-11.9179
Grammar	-11.9181
▁MD	-11.9184
anim	-11.9186
▁onError	-11.9186
▁printer	-11.9186
▁bring	-11.9187
Dot	-11.9188
Pay	-11.9188
Prepare	-11.9189
EventQueue	-11.919
▁chapter	-11.9191
▁lookahead	-11.9192
▁degrees	-11.9193
▁books	-11.9193
ResourceNotFound	-11.9196
("/")	-11.9199
components	-11.9208
addItem	-11.9211
▁catching	-11.9215
▁decoding	-11.9216
URLConnection	-11.9217
assert	-11.9218
▁considering	-11.9218
writeLock	-11.9221
0.1	-11.9222
▁keywords	-11.9222
▁pageSize	-11.9225
Comparable	-11.9228
▁margin	-11.9229
▁removal	-11.9231
▁cos	-11.9235
▁URLConnection	-11.9237
Broadcast	-11.9239
secure	-11.9242
Vertical	-11.9242
repaint	-11.9243
ListItem	-11.9243
Clip	-11.9245
Configurable	-11.9245
▁technically	-11.9246
▁concat	-11.925
pro	-11.9251
Readable	-11.9252
NA	-11.9255
▁futures	-11.9256
Emp	-11.9256
Catch	-11.9256
logback	-11.9257
Parsing	-11.9258
▁unchecked	-11.926
getNumber	-11.9262
Clear	-11.9263
SCHEMA	-11.9264
Pack	-11.9265
entities	-11.9268
▁originally	-11.927
▁pin	-11.927
▁Match	-11.9277
Positive	-11.9277
▁manipulation	-11.9277
usually	-11.9278
getJSONArray	-11.928
▁Usage	-11.9281
▁discover	-11.9282
mul	-11.9284
(4)	-11.9288
▁assembly	-11.9288
suffix	-11.9291
(100,	-11.9291
▁router	-11.9293
sha	-11.9295
▁facing	-11.9297
▁lack	-11.9299
▁interpreter	-11.93
Install	-11.9301
Sc	-11.9302
▁dec	-11.9304
getLabel	-11.9305
lastModified	-11.9306
(100);	-11.9307
▁reflect	-11.9308
▁jump	-11.9311
getOwner	-11.9311
DefaultInstance	-11.9314
▁infer	-11.9316
▁appropriately	-11.9319
WebApp	-11.9319
HEAD	-11.9323
▁resume	-11.9323
▁training	-11.9323
▁MongoDB	-11.9324
▁NoSuchElement	-11.9325
▁WebView	-11.9329
ENGLISH	-11.9329
cy	-11.9331
shuffle	-11.9334
addComponent	-11.9335
▁forced	-11.9337
EXCEPTION	-11.9342
▁JSTL	-11.9342
postDelayed	-11.9343
▁replication	-11.9344
Many	-11.9344
▁tracker	-11.9347
▁accumulator	-11.9348
▁Multiple	-11.9348
Inv	-11.935
Edges	-11.935
▁limitation	-11.935
WebSocket	-11.9353
pic	-11.9354
Win	-11.9357
▁composition	-11.9358
▁primaryKey	-11.9359
▁SDVariable	-11.9361
▁English	-11.9362
getMin	-11.9362
Invoke	-11.9362
▁contentPane	-11.9363
▁environments	-11.9364
tar	-11.9365
isNotEmpty	-11.9367
▁invocations	-11.9368
▁initialValue	-11.937
setScene	-11.9372
▁incremented	-11.9373
Sig	-11.9375
gui	-11.9376
▁puts	-11.9378
tcp	-11.9381
Gregorian	-11.9385
outer	-11.9392
▁textArea	-11.9394
▁frequently	-11.9395
▁miss	-11.94
Coverage	-11.9401
▁github	-11.9402
▁cv	-11.9403
▁breakpoint	-11.9404
Dev	-11.9404
Retention	-11.9405
setUser	-11.9407
may	-11.9407
▁listing	-11.9407
Welcome	-11.9407
BEGIN	-11.9407
▁setValue	-11.9407
▁covered	-11.9413
▁robust	-11.9414
NORTH	-11.9414
▁stackSize	-11.9415
▁oos	-11.9418
cipher	-11.9419
ai	-11.942
PRE	-11.9423
▁5.0	-11.9424
2.5	-11.9424
▁traversal	-11.9425
NodeList	-11.9427
▁FFDCFilter	-11.9427
Counts	-11.9431
▁diagram	-11.9433
EXTERNAL	-11.944
Facade	-11.944
getStackTrace	-11.9441
(1))	-11.9441
▁Apple	-11.9444
PROPERTIES	-11.9446
▁picked	-11.9447
Remaining	-11.9448
verbose	-11.9449
Applet	-11.945
getFirstChild	-11.9451
▁importing	-11.9455
▁Vehicle	-11.9456
getUrl	-11.9458
▁polymorphism	-11.9459
▁4.0	-11.9461
Sep	-11.9462
▁100)	-11.9462
history	-11.9464
ble	-11.9465
▁installing	-11.9466
▁struct	-11.9466
▁scaled	-11.9467
▁enables	-11.9468
Delimiter	-11.9469
(5)	-11.9472
ScrollPane	-11.9473
newLine	-11.9476
▁datatype	-11.9478
di	-11.9478
▁song	-11.9481
Buffers	-11.9481
▁Compute	-11.9483
RG	-11.9488
Inter	-11.9489
▁/=	-11.9495
implementation	-11.9496
TypeEnum	-11.9499
▁handy	-11.9501
{@	-11.9502
Micro	-11.9505
Comments	-11.9506
Disabled	-11.9508
▁finder	-11.9509
▁searches	-11.9511
Swap	-11.9511
ChangeEvent	-11.952
▁Geo	-11.9528
▁NoSuchAlgorithm	-11.9533
Article	-11.9534
ins	-11.9535
▁[1,	-11.9535
PoolSize	-11.9538
▁hexadecimal	-11.9538
▁EnumSet	-11.9539
▁policies	-11.9542
Crypto	-11.9543
▁semicolon	-11.9545
▁Lazy	-11.9546
▁retVal	-11.9548
oid	-11.9548
▁sections	-11.9548
Deploy	-11.9549
▁ideal	-11.9549
Rank	-11.955
agg	-11.9551
Products	-11.9552
▁multiplication	-11.9552
Credit	-11.9553
rl	-11.9553
Cast	-11.9554
▁shall	-11.9555
mem	-11.9557
Exact	-11.9557
CODES	-11.9558
HashSet	-11.956
fp	-11.9561
Pipe	-11.9561
▁scratch	-11.9563
LY	-11.9563
▁Iterate	-11.9566
PM	-11.9566
>(_	-11.9569
▁wide	-11.957
▁optimal	-11.957
▁precisely	-11.9574
getRaw	-11.9575
▁Additional	-11.9575
▁movie	-11.9577
▁involves	-11.9583
▁getPersistence	-11.959
Plot	-11.9592
▁launcher	-11.9592
▁viewport	-11.9592
tan	-11.9593
-9	-11.9595
Wrap	-11.9596
windows	-11.9601
IM	-11.9604
▁advantages	-11.9606
▁velocity	-11.9608
▁bounding	-11.9609
land	-11.9609
▁XSLT	-11.9614
fb	-11.9614
OT	-11.9615
MA	-11.9618
uring	-11.9619
dex	-11.9619
MethodName	-11.9619
Installed	-11.962
▁fresh	-11.9621
▁wb	-11.9622
▁Debug	-11.9624
(*)	-11.9624
Startup	-11.9625
▁Glassfish	-11.9625
▁BitmapFactory	-11.9628
▁dns	-11.9629
Disable	-11.9629
▁aside	-11.963
▁Lucene	-11.9631
ident	-11.9632
TypeReference	-11.9633
▁IMHO	-11.9634
▁qualifier	-11.9637
▁cart	-11.9639
▁BitSet	-11.9646
▁ten	-11.9647
▁Protocol	-11.9648
SSS	-11.9653
▁reaches	-11.9654
PrintWriter	-11.9655
▁classifier	-11.9655
getCache	-11.9657
▁rebuild	-11.966
▁exceeded	-11.9661
pending	-11.9663
▁wont	-11.9664
▁binder	-11.9664
air	-11.9664
nav	-11.9665
dimen	-11.9665
▁worst	-11.9665
logout	-11.9669
▁2.5	-11.967
runner	-11.9675
▁pm	-11.968
▁42	-11.968
haredPreferences	-11.9681
▁exercise	-11.9682
heap	-11.9683
quartz	-11.9685
DESC	-11.9691
probably	-11.9692
▁chose	-11.9693
writeTo	-11.9694
▁colon	-11.9695
Times	-11.9696
issue	-11.9696
▁targets	-11.9697
require	-11.97
▁satisfy	-11.97
\"");	-11.97
Upper	-11.9703
()}.	-11.9703
Lazy	-11.9704
▁hits	-11.9704
▁Mar	-11.9704
Try	-11.9705
Movie	-11.9705
▁cons	-11.9709
vi	-11.971
Canonical	-11.9712
course	-11.9714
relation	-11.9715
▁indexing	-11.9716
▁practical	-11.9717
WHITE	-11.9719
▁HotSpot	-11.9719
▁Unsupported	-11.972
offer	-11.9721
▁RemoteException	-11.9722
getPoint	-11.9723
getNumberOf	-11.9723
receiver	-11.9724
▁poor	-11.9724
getP	-11.9729
▁EClass	-11.973
▁IMO	-11.9731
▁histogram	-11.9732
▁recovery	-11.9734
Way	-11.9736
▁injector	-11.9737
▁pa	-11.9738
Checksum	-11.9739
▁exceeds	-11.974
week	-11.9742
▁Always	-11.9742
dx	-11.9742
="0	-11.9744
▁equation	-11.9746
cn	-11.975
▁transitive	-11.9751
loading	-11.9752
▁bytesRead	-11.9752
Implicit	-11.9752
ned	-11.9754
gms	-11.9754
snapshot	-11.9756
▁unsafe	-11.9759
(0),	-11.9759
▁slice	-11.976
▁longest	-11.976
getSuperclass	-11.976
baseUrl	-11.976
▁TableModel	-11.9761
▁INSERT	-11.9761
▁Specify	-11.9761
▁combinations	-11.9763
rand	-11.9765
PT	-11.9765
▁tax	-11.9766
od	-11.9769
art	-11.977
▁matters	-11.9771
▁FTP	-11.9772
▁Git	-11.9772
▁rounded	-11.9775
Triple	-11.9775
ick	-11.9775
Expressions	-11.9777
▁Pointer	-11.9777
▁wheel	-11.9779
Sys	-11.9779
▁:=	-11.9783
SuperClass	-11.9786
compareAndSet	-11.9787
JC	-11.9788
getError	-11.979
synchronized	-11.9791
Like	-11.9791
crypto	-11.9792
▁sketch	-11.9793
JsonIgnore	-11.9794
▁assets	-11.9796
▁Streams	-11.9797
Patient	-11.98
Reporter	-11.9803
Illegal	-11.9803
ptr	-11.9809
Editable	-11.9814
▁permitted	-11.9814
ErrorHandler	-11.9814
clients	-11.9817
)+	-11.9819
DES	-11.982
Deserialization	-11.982
Placeholder	-11.9821
textField	-11.9822
boxed	-11.9822
ComboBox	-11.9823
dynamic	-11.9825
▁cnt	-11.9826
ron	-11.9834
getExternal	-11.9834
rm	-11.9834
JobExecution	-11.9835
▁InputSource	-11.9835
setParent	-11.9835
findBy	-11.9835
ach	-11.984
kit	-11.9841
▁programmers	-11.9846
▁align	-11.9847
▁IS	-11.9847
FormatException	-11.9847
jmx	-11.9851
Whitespace	-11.9852
▁Doing	-11.9852
PropertySource	-11.9853
responses	-11.9853
---	-11.9854
*\\	-11.9855
Negative	-11.9855
▁offsets	-11.9858
▁Export	-11.9863
activation	-11.9865
▁daemon	-11.9866
▁HelloWorld	-11.987
▁carry	-11.987
▁Turns	-11.9871
▁terminates	-11.9871
Attempting	-11.9873
▁Declare	-11.9878
seek	-11.9881
getStatusCode	-11.9882
▁Mat	-11.9883
Round	-11.9883
▁paper	-11.9885
cached	-11.9885
fully	-11.9887
▁Package	-11.989
relative	-11.9893
▁Everything	-11.9895
▁delegates	-11.9897
CPDefinition	-11.9898
tp	-11.99
▁XMLStream	-11.9902
▁MS	-11.9902
finally	-11.9903
▁END	-11.9903
Discovery	-11.9904
▁exported	-11.9904
Providers	-11.9904
▁ls	-11.9905
▁fly	-11.9907
Collect	-11.9908
Invoice	-11.991
getJob	-11.9911
▁AST	-11.9911
TL	-11.9911
multipart	-11.9914
Wrong	-11.9916
▁rarely	-11.9917
BB	-11.9919
Exclude	-11.9919
was	-11.992
&&	-11.9921
Department	-11.9923
Closure	-11.9923
▁javadocs	-11.9924
ifier	-11.9927
2015	-11.993
▁CardLayout	-11.9931
▁reused	-11.9931
▁restoreStack	-11.9932
)\\	-11.9932
▁Logging	-11.9932
Since	-11.9933
Mime	-11.9935
2()	-11.9936
Already	-11.9936
▁bos	-11.9937
▁timing	-11.9937
▁retain	-11.9937
getLeft	-11.9939
▁Ajax	-11.9939
Samples	-11.994
blah	-11.994
▁hosts	-11.9942
QueryParam	-11.9943
ClassInfo	-11.9944
▁discussed	-11.9945
ClassPath	-11.9945
▁portal	-11.9947
▁mac	-11.9948
three	-11.9948
▁setUp	-11.9954
za	-11.9956
▁Camel	-11.9957
▁'.'	-11.9957
ROW	-11.9957
PRO	-11.9957
fileset	-11.9958
BlockingQueue	-11.9958
▁lhs	-11.9958
▁sessionId	-11.9959
SSLSocketFactory	-11.996
▁sees	-11.996
▁radio	-11.9964
▁stringBuilder	-11.9964
getA	-11.9965
shade	-11.9968
mc	-11.997
-6	-11.9971
visibility	-11.9971
3.3	-11.9975
Hidden	-11.9976
▁divisor	-11.9981
Annotated	-11.9985
▁Secondly	-11.9985
▁Html	-11.9985
▁Email	-11.9986
latitude	-11.9986
tz	-11.9989
▁developing	-11.9992
Wave	-11.9992
Triangle	-11.9992
FE	-11.9992
10,	-11.9992
▁DELETE	-11.9993
construct	-11.9993
▁comparisons	-11.9994
Mutable	-11.9995
▁sequential	-11.9997
Backend	-11.9997
ENCODING	-11.9999
▁parentheses	-11.9999
▁installer	-12.0003
pf	-12.0003
▁surface	-12.0004
▁Driver	-12.0005
ManagerFactory	-12.0005
▁enumeration	-12.0006
serial	-12.0006
Decision	-12.0006
TLS	-12.0007
Logs	-12.0009
visible	-12.001
▁uid	-12.0011
▁commonly	-12.0012
▁Accept	-12.0012
JsonDeserializer	-12.0013
Reservation	-12.0013
WARN	-12.0013
joda	-12.0017
qualified	-12.002
Eclipse	-12.0025
SecretKey	-12.0028
Ssl	-12.0029
lan	-12.0031
throwable	-12.0032
▁(((	-12.0033
▁consumers	-12.0033
▁Unique	-12.0033
Big	-12.0033
▁excellent	-12.0033
▁errorMessage	-12.0034
FromString	-12.0035
FORM	-12.0035
cam	-12.0036
▁executorService	-12.0038
▁External	-12.004
bad	-12.0041
▁vectors	-12.0042
▁vars	-12.0043
Large	-12.0044
UID	-12.0045
▁Stage	-12.0045
▁servletContext	-12.0046
track	-12.0049
hit	-12.005
▁restricted	-12.005
▁suppress	-12.0051
▁Ja	-12.0051
bash	-12.0051
▁soft	-12.0055
▁FXMLLoader	-12.0055
Initialization	-12.0057
▁packaging	-12.006
[1],	-12.0061
RO	-12.0061
1024	-12.0062
ARGB	-12.0062
▁repeatedly	-12.0065
▁mixing	-12.0066
▁okay	-12.0069
▁listView	-12.0069
▁127	-12.007
▁?,	-12.007
▁highlight	-12.0071
-----	-12.008
▁train	-12.0081
grade	-12.0081
Backpressure	-12.0082
2*	-12.0085
tain	-12.0086
2000	-12.0088
▁clusters	-12.0089
▁ifNoneMatch	-12.0089
▁dispose	-12.0089
▁findAll	-12.0095
Rotate	-12.0096
async	-12.0096
▁AspectJ	-12.0096
Ptr	-12.0097
Proc	-12.0099
ib	-12.01
▁XY	-12.0102
▁ct	-12.0103
▁consistency	-12.0103
MozuClient	-12.0109
slot	-12.0113
CBC	-12.0115
UserInfo	-12.0116
CmsException	-12.0117
Matchers	-12.0117
updated	-12.0118
▁panels	-12.0119
▁tip	-12.0119
▁Browser	-12.012
▁varargs	-12.012
Detection	-12.0121
▁deletion	-12.0125
assertEquals	-12.0125
▁Besides	-12.0127
NodeType	-12.0128
▁NIO	-12.0133
▁startDate	-12.0133
Blue	-12.0138
▁calculating	-12.0138
▁MBean	-12.0139
▁EObject	-12.0141
▁recognized	-12.0141
▁compress	-12.0141
SerializedName	-12.0145
privacy	-12.0145
NaN	-12.0147
2014	-12.0147
▁man	-12.0151
coordinate	-12.0151
Pure	-12.0153
▁")");	-12.0154
▁Managed	-12.0155
han	-12.0156
negative	-12.0156
unknown	-12.0157
audio	-12.0157
getParam	-12.0158
▁RelativeLayout	-12.0159
▁onDataChange	-12.0159
ANTLR	-12.0159
putIfAbsent	-12.0161
9.0	-12.0162
▁mocked	-12.0162
▁prototype	-12.0163
1.7	-12.0164
ition	-12.0164
Bug	-12.0165
MalformedURL	-12.0165
▁pstmt	-12.0165
2020	-12.0166
▁identifies	-12.0166
ListAdapter	-12.0169
ware	-12.0169
▁HttpGet	-12.0169
▁efficiency	-12.0173
▁stopping	-12.0175
▁AndroidManifest	-12.0176
▁Say	-12.018
▁Arithmetic	-12.0181
NoSuchMethod	-12.0181
▁Sql	-12.0183
Caching	-12.0188
lp	-12.0188
▁proto	-12.0189
allowed	-12.019
▁declares	-12.0192
RT	-12.0192
▁nicely	-12.0195
▁appending	-12.0197
packages	-12.0199
▁nearest	-12.0201
JarFile	-12.0202
▁tier	-12.0203
FailedException	-12.0204
Expired	-12.0204
=?	-12.0205
Recovery	-12.0208
BLUE	-12.0209
Budget	-12.0209
▁pojo	-12.0214
bounds	-12.0214
Sdk	-12.0216
Fleet	-12.0217
▁UDP	-12.0218
hu	-12.0219
▁Sequence	-12.0221
▁Cookie	-12.0222
dat	-12.0223
▁Root	-12.0223
LoadBalancer	-12.0223
Machine	-12.0226
Fact	-12.0226
▁Subject	-12.0227
▁ModelNode	-12.0227
▁Nothing	-12.0228
▁jQuery	-12.0229
▁suit	-12.0233
med	-12.0234
sound	-12.0235
hole	-12.0235
sIn	-12.0235
▁tracking	-12.0237
wd	-12.0238
enc	-12.0239
Conditional	-12.0239
▁Mark	-12.0239
SF	-12.0241
flip	-12.0243
addParameter	-12.0243
▁plenty	-12.0244
reply	-12.0244
▁aspects	-12.0245
(1.0	-12.0246
▁forever	-12.0248
principal	-12.025
NumberOf	-12.025
▁monitoring	-12.0251
isChecked	-12.0252
AccessToken	-12.0252
ModelAttribute	-12.0252
▁Split	-12.0255
▁discarded	-12.0255
▁300	-12.0257
▁colour	-12.0259
Scaling	-12.026
▁DSL	-12.0261
Authority	-12.0262
sip	-12.0264
▁toggle	-12.0264
Frequency	-12.0266
SCOPE	-12.0266
Piece	-12.0266
▁EFapsException	-12.0266
Updates	-12.0271
▁Win	-12.0271
▁sorts	-12.0273
findElements	-12.0273
▁Constant	-12.0275
dn	-12.0276
▁Perform	-12.0278
▁contexts	-12.0281
primitive	-12.0281
StackTrace	-12.0286
▁bitwise	-12.0289
Cl	-12.0291
dataset	-12.0294
Routing	-12.0295
▁fired	-12.0295
▁unchanged	-12.0295
▁mongo	-12.0297
▁scalar	-12.0297
▁selenium	-12.0299
Kit	-12.0299
▁localized	-12.03
▁exponent	-12.03
cssSelector	-12.0303
▁LayoutInflater	-12.0303
Office	-12.0307
Friend	-12.0308
Specifies	-12.0308
▁7)	-12.031
(?=	-12.0311
▁cmp	-12.0312
SwingUtilities	-12.0313
ObservableSource	-12.0316
▁Format	-12.0317
▁AJAX	-12.0318
▁Period	-12.0321
▁managing	-12.0323
sig	-12.0326
▁Editor	-12.0326
have	-12.0327
▁enhanced	-12.0328
FixedThreadPool	-12.033
getElementById	-12.033
Redis	-12.0333
▁NoSuchMethod	-12.0335
func	-12.0336
▁Actor	-12.0338
▁stateless	-12.0339
▁Builds	-12.034
▁tenant	-12.0343
Written	-12.0344
pem	-12.0345
▁Insert	-12.0352
RPC	-12.0354
▁gap	-12.0357
ensure	-12.0358
▁CXF	-12.0359
retry	-12.0364
startActivity	-12.0366
▁HQL	-12.0366
dog	-12.0366
PA	-12.0368
Watcher	-12.0369
,0,	-12.037
▁Internet	-12.037
▁opens	-12.0371
Jsp	-12.0371
nu	-12.0372
▁availability	-12.0372
{3}	-12.0372
INFINITY	-12.0373
▁merely	-12.0373
▁Blob	-12.0373
Sensor	-12.0373
▁lon	-12.0375
▁https	-12.0375
▁di	-12.0376
ack	-12.0381
▁HttpEntity	-12.0381
hbm	-12.0383
▁Paths	-12.0384
wi	-12.0385
Fix	-12.0387
formed	-12.0387
Visit	-12.0389
LIMIT	-12.0391
▁packaged	-12.0393
▁simulate	-12.0394
▁reduced	-12.0394
_8	-12.0394
▁Correct	-12.0395
QueryResult	-12.0396
▁versa	-12.0397
TypeElement	-12.0397
▁someMethod	-12.0399
▁handshake	-12.04
ones	-12.04
getValueAt	-12.04
▁packets	-12.0401
Symbols	-12.0402
JTextField	-12.0404
getModifiers	-12.0406
prov	-12.0406
("",	-12.0408
inclusive	-12.0409
▁bundled	-12.041
▁addBody	-12.0411
82	-12.0411
TestCase	-12.0414
▁Would	-12.0415
AV	-12.0417
Spi	-12.0419
▁Cassandra	-12.0419
receive	-12.042
-1);	-12.0421
▁getActivity	-12.0421
▁clicks	-12.0421
Strict	-12.0423
▁StringBundler	-12.0423
▁captured	-12.0424
▁fork	-12.0424
_4>	-12.0425
▁joined	-12.0425
booleanValue	-12.0426
IDENTITY	-12.0427
▁expiration	-12.0427
▁vec	-12.0428
▁rm	-12.0429
Vault	-12.043
▁grep	-12.043
Filtered	-12.0431
▁improved	-12.0431
▁scheduling	-12.0433
▁automation	-12.0435
▁preview	-12.0437
canvas	-12.0441
Vehicle	-12.0441
▁Applet	-12.0441
▁eval	-12.0441
2016	-12.0442
12345	-12.0444
▁abc	-12.0447
AA	-12.0452
▁cron	-12.0457
minus	-12.0458
ViewModel	-12.0458
setCurrent	-12.0458
▁OO	-12.046
▁Bit	-12.0461
▁raf	-12.0462
▁inherits	-12.0462
▁observed	-12.0463
ious	-12.0464
LOAD	-12.0464
Reflection	-12.0465
▁restTemplate	-12.0466
webdriver	-12.0467
▁DataSet	-12.0468
dl	-12.0469
[10];	-12.0469
▁getLog	-12.0469
▁addresource	-12.0471
▁optimizations	-12.0472
▁QName	-12.0472
Front	-12.0473
deserialize	-12.0474
Sales	-12.0476
RUNTIME	-12.0482
Checkpoint	-12.0486
isFile	-12.0488
Nanos	-12.0491
hh	-12.0493
▁eDataType	-12.0494
▁reversed	-12.0495
Statements	-12.0495
BUTTON	-12.0496
▁FXML	-12.0496
▁omitted	-12.0496
tech	-12.0501
▁forum	-12.0501
EST	-12.0501
▁minimize	-12.0501
Closing	-12.0502
▁endTime	-12.0503
ations	-12.0505
Formats	-12.0505
▁Sure	-12.0506
ward	-12.0508
Mockito	-12.0508
▁Fixed	-12.0508
possibly	-12.0509
BLOCK	-12.051
▁met	-12.0516
Kernel	-12.0518
lin	-12.0521
▁displays	-12.0521
▁2]	-12.0522
FEATURE	-12.0525
Chooser	-12.0526
▁deliver	-12.0533
IllegalState	-12.0535
SO	-12.0536
sock	-12.0538
upper	-12.0538
Defined	-12.0539
Online	-12.054
+");	-12.0542
hy	-12.0552
▁Robot	-12.0554
changed	-12.0556
mkdir	-12.056
▁reporting	-12.0561
pin	-12.0566
▁trusted	-12.0567
Lambda	-12.0568
mapped	-12.0568
rawtypes	-12.057
▁Scan	-12.0571
▁lv	-12.0571
gram	-12.0573
▁maintained	-12.0577
Checkout	-12.058
locator	-12.0582
▁launched	-12.0582
readLock	-12.0584
ErrorResponse	-12.0584
tw	-12.0585
XA	-12.0587
well	-12.0587
RDD	-12.0587
▁Authorization	-12.0587
IgnoreCase	-12.0588
▁namespaces	-12.0588
▁Initializes	-12.0588
▁FetchType	-12.0589
0001	-12.0589
▁mainly	-12.0589
comparator	-12.0589
456	-12.0589
▁Twitter	-12.0597
▁jc	-12.0597
▁Deployment	-12.0598
▁Flow	-12.0598
Synchronization	-12.0599
▁utilize	-12.06
Pause	-12.06
eGet	-12.06
AutoCreate	-12.0601
Jwt	-12.0602
▁Signature	-12.0602
getParentFile	-12.0604
Arc	-12.0605
▁tokenizer	-12.0605
writeValueAs	-12.0605
Descriptors	-12.0607
Correct	-12.0609
3"	-12.0609
kafka	-12.061
repositories	-12.061
=[	-12.0611
▁404	-12.0612
%20	-12.0612
▁"1"	-12.0613
▁Db	-12.0619
Migration	-12.062
getMap	-12.0622
▁Bad	-12.0622
▁Running	-12.0623
JComponent	-12.0623
GMT	-12.0624
Inclusive	-12.0628
▁irrelevant	-12.0628
▁tiles	-12.063
Xms	-12.0634
▁Useful	-12.0635
▁Indicates	-12.0636
▁Still	-12.064
Updater	-12.064
VAR	-12.064
GONE	-12.0641
scheme	-12.0641
▁problematic	-12.0641
SWT	-12.0642
ordinal	-12.0642
▁guys	-12.0644
▁circumstances	-12.0645
En	-12.0647
PrintStream	-12.0647
▁fashion	-12.0653
ToFile	-12.0653
PathParam	-12.0654
anyMatch	-12.0654
ObjectName	-12.0655
ACTIVE	-12.0657
ship	-12.0657
UNIT	-12.0659
assembly	-12.066
family	-12.066
[1])	-12.066
▁examine	-12.0661
SOUTH	-12.0665
credentials	-12.0665
▁stands	-12.0666
Percent	-12.0666
getServer	-12.0671
filters	-12.0671
▁decorator	-12.0673
▁unrelated	-12.0674
▁Polygon	-12.0675
SINGLE	-12.068
IL	-12.068
und	-12.0682
▁capital	-12.0682
▁splits	-12.0682
▁incompatible	-12.0683
▁databaseName	-12.0684
▁httpclient	-12.0685
1000000	-12.0685
mar	-12.0687
▁directive	-12.069
▁editText	-12.0691
▁wherever	-12.0693
Music	-12.0695
▁getResources	-12.0695
icationException	-12.0697
contextPath	-12.0699
▁getUser	-12.07
jp	-12.0701
ADMIN	-12.0702
Pref	-12.0702
▁hopefully	-12.0704
prod	-12.0708
gz	-12.0709
▁contrast	-12.0709
▁Solr	-12.0713
WebApplication	-12.0714
▁supporting	-12.0718
ending	-12.0719
setCellValue	-12.0723
▁computing	-12.0724
Linked	-12.0725
dis	-12.0728
portlet	-12.0728
getPackage	-12.0729
Devices	-12.0729
MXBean	-12.0731
▁CLASS	-12.0735
▁succeed	-12.0735
appengine	-12.0736
ball	-12.0736
Iteration	-12.0738
rmi	-12.0739
HORI	-12.0747
El	-12.0747
▁compound	-12.0747
Food	-12.0748
Inputs	-12.0749
▁PUT	-12.0749
DayOfWeek	-12.0751
▁delivery	-12.0751
isArray	-12.0753
oke	-12.0754
cols	-12.0754
ActionPerformed	-12.0754
FileReader	-12.0757
StorageException	-12.0758
RUN	-12.0758
tick	-12.0759
Signed	-12.0759
CHANNEL	-12.0761
▁clarify	-12.0761
rid	-12.0763
reg	-12.0764
MR	-12.0765
▁routing	-12.0769
getView	-12.077
▁authorized	-12.077
SOAP	-12.0772
Resize	-12.0773
vertex	-12.0774
▁instanceValue	-12.0775
▁initialise	-12.0776
getSchema	-12.0778
▁consumes	-12.0778
▁cont	-12.0779
ans	-12.0782
PKCS	-12.0783
Minute	-12.0785
▁sake	-12.0787
FacesContext	-12.0789
▁publisher	-12.079
BA	-12.0792
DOCTYPE	-12.0792
▁aliases	-12.0793
▁jetty	-12.0793
▁serializing	-12.0794
HttpMethod	-12.0794
***	-12.0795
250	-12.0795
getTableName	-12.0797
dispatcher	-12.0799
nbsp	-12.0803
RECORD	-12.0804
▁verified	-12.0804
ACC	-12.0806
▁Render	-12.0807
(10)	-12.0809
We	-12.0809
▁pref	-12.0811
▁Join	-12.0813
Acl	-12.0813
▁Integration	-12.0814
cent	-12.0815
▁profiler	-12.0816
signed	-12.0816
backup	-12.0818
▁ideas	-12.0825
Docs	-12.0827
STORAGE	-12.0829
▁realized	-12.0829
▁mechanisms	-12.083
▁observe	-12.0831
Money	-12.0831
HttpStatus	-12.0834
RESPONSE	-12.0836
Tracking	-12.084
▁tz	-12.0841
packageName	-12.0843
War	-12.0843
▁biggest	-12.0844
jpeg	-12.0845
150	-12.0846
▁consecutive	-12.0846
▁begins	-12.0848
▁significantly	-12.0848
▁discard	-12.0849
around	-12.085
▁HttpStatus	-12.0853
MainClass	-12.0855
▁Pre	-12.0855
Aggregator	-12.0859
▁peek	-12.0862
▁degree	-12.0866
▁4);	-12.0866
▁literally	-12.0868
▁inference	-12.0869
TR	-12.0869
osgi	-12.0871
▁raise	-12.0871
("/");	-12.0872
DataStore	-12.0873
▁involve	-12.0873
Blocking	-12.0874
▁boundaries	-12.0875
▁predefined	-12.0875
▁Loads	-12.0876
Cur	-12.0879
But	-12.088
iterable	-12.0882
▁al	-12.0883
▁conversions	-12.0886
PERMISSION	-12.0886
▁HTTPS	-12.0888
deprecation	-12.0889
FRAME	-12.0889
TrustManager	-12.089
▁simultaneously	-12.089
▁tm	-12.0892
▁ejb	-12.0892
Wildcard	-12.0892
getAs	-12.0893
oauth	-12.0893
Hand	-12.0894
▁classname	-12.0895
▁individually	-12.0897
ONTAL	-12.0897
jsonObject	-12.0898
▁Possible	-12.09
▁Starting	-12.09
restore	-12.0902
singletonList	-12.0904
▁Hash	-12.0904
Attrs	-12.0906
▁grouped	-12.0907
countDown	-12.091
==0)	-12.0911
▁sm	-12.0911
Epoch	-12.0912
feed	-12.0912
▁Hopefully	-12.0913
▁avoids	-12.0915
▁Clean	-12.0916
swap	-12.0918
▁den	-12.0919
tor	-12.0919
▁Illegal	-12.092
LC	-12.0921
ServiceInterface	-12.0921
Interceptors	-12.0925
subtract	-12.0925
Bond	-12.0926
Handshake	-12.0927
showInputDialog	-12.0927
Relative	-12.0928
loaded	-12.093
CON	-12.0932
1.6	-12.0933
OneToOne	-12.0935
Partitions	-12.0936
Ws	-12.0941
modified	-12.0941
▁1.3	-12.0941
▁existence	-12.0945
ton	-12.0946
▁viewer	-12.0946
Known	-12.095
Allocation	-12.0952
evt	-12.0953
▁Executes	-12.0955
▁Connect	-12.0956
▁formal	-12.096
extensions	-12.0961
Portlet	-12.0962
▁scrollPane	-12.0963
ory	-12.0963
Configurator	-12.0965
=0,	-12.0966
▁spent	-12.0966
▁qPath	-12.097
lucene	-12.0973
+2	-12.0977
OTHER	-12.0978
▁initializes	-12.098
▁randomly	-12.098
+",	-12.0981
▁intervals	-12.0982
▁6;	-12.0982
▁lst	-12.0983
▁independently	-12.0985
BO	-12.0985
▁sh	-12.0987
pu	-12.0988
ErrorMessage	-12.0988
▁dropped	-12.0989
Channels	-12.099
Cross	-12.0991
▁atoms	-12.0993
mappedBy	-12.0994
▁addTo	-12.0995
Detect	-12.0996
Directories	-12.0996
▁HtmlTree	-12.0997
fillRect	-12.0998
views	-12.0998
▁mime	-12.0999
▁saves	-12.1
maps	-12.1
Apply	-12.1002
▁FAQ	-12.1004
▁Bug	-12.1008
ComponentScan	-12.1013
inter	-12.1016
Activation	-12.1019
▁Cheers	-12.1019
Quota	-12.1019
▁getNext	-12.1022
▁arrow	-12.1023
[6]	-12.1025
▁Tile	-12.1026
Verification	-12.1027
tool	-12.1027
Customizer	-12.1027
called	-12.1031
acquire	-12.1033
▁AFAIK	-12.1033
]));	-12.1033
doFinal	-12.1034
▁123	-12.1034
()==	-12.1034
qr	-12.1036
Yes	-12.1036
▁dataType	-12.1038
▁avoiding	-12.1038
iso	-12.1038
Classification	-12.1039
aggregate	-12.104
CV	-12.1041
▁vm	-12.1042
("/"))	-12.1044
▁TEXT	-12.1046
00:00	-12.1047
▁stock	-12.1048
Mutation	-12.105
checkbox	-12.1052
setDate	-12.1052
JavaScript	-12.1052
1.4	-12.1053
ner	-12.1054
oy	-12.1055
gs	-12.1055
dm	-12.1058
surefire	-12.1059
▁yyyy	-12.1065
▁1-	-12.1065
▁chooser	-12.1066
▁seek	-12.1071
▁latency	-12.1072
▁visual	-12.1076
runnable	-12.1078
({"	-12.108
Modification	-12.1081
▁He	-12.1081
▁regions	-12.1081
▁INFO	-12.1082
BoundsException	-12.1082
▁2000	-12.1084
startDate	-12.1084
(-1);	-12.1084
Profiles	-12.1085
Gap	-12.1085
through	-12.1086
CmsXmlContent	-12.1086
ash	-12.1087
▁itr	-12.1088
thin	-12.1089
▁pst	-12.1091
RestController	-12.1091
▁EOF	-12.1093
▁JVMs	-12.1093
buff	-12.1094
180	-12.1097
▁overloading	-12.1097
bd	-12.11
▁indicator	-12.1101
▁rt	-12.1102
▁pain	-12.1103
▁relying	-12.1104
▁"&	-12.1104
▁Fix	-12.1105
▁posts	-12.1105
▁analyzer	-12.1106
("")	-12.1106
▁backward	-12.1108
▁reflected	-12.111
▁developed	-12.111
orig	-12.111
AsyncTask	-12.1111
▁Third	-12.1114
▁rare	-12.1116
PUBLIC	-12.1121
defaultValue	-12.1122
▁clientId	-12.1125
▁replica	-12.1125
WORD	-12.1126
jni	-12.1126
▁Work	-12.1129
NF	-12.113
Cells	-12.113
ldap	-12.1131
▁messaging	-12.1134
kotlin	-12.1135
postgresql	-12.1135
▁beta	-12.1135
▁mentions	-12.1136
ispatcherServlet	-12.1137
▁ViewHolder	-12.1137
▁Directory	-12.1141
swagger	-12.1142
mojo	-12.1143
hs	-12.1144
▁overwritten	-12.1144
getDeclared	-12.1144
▁SecureRandom	-12.1145
gateway	-12.1146
EOF	-12.1146
stylesheet	-12.1147
▁promise	-12.1149
Formatted	-12.1152
DEF	-12.1152
▁deserialized	-12.1156
▁somebody	-12.1158
▁derive	-12.1159
PostProcessor	-12.116
▁raised	-12.1162
dec	-12.1162
▁"")	-12.1164
▁technical	-12.1164
▁inefficient	-12.1166
▁3);	-12.1167
packet	-12.1168
mult	-12.1169
▁adjusted	-12.1169
getDatabase	-12.117
▁Tab	-12.1171
instead	-12.1172
zk	-12.1173
▁material	-12.1175
php	-12.1175
imp	-12.1177
setParam	-12.1179
160	-12.118
baz	-12.118
Ancestor	-12.1181
CacheManager	-12.1182
Disposition	-12.1182
False	-12.1182
▁sha	-12.1182
sendKeys	-12.1187
Commands	-12.1187
▁resultCode	-12.1189
getQuery	-12.1189
testng	-12.119
▁constructs	-12.119
▁fonts	-12.1191
tu	-12.1191
dateTime	-12.1192
interceptor	-12.1194
▁...)	-12.1195
▁topology	-12.1197
▁6.	-12.1198
▁userInput	-12.1199
Compact	-12.1199
▁statically	-12.1199
▁PD	-12.12
▁onResume	-12.1202
▁TRACE	-12.1204
▁fm	-12.1204
▁Place	-12.1206
▁myArray	-12.1207
▁MouseListener	-12.1209
VE	-12.121
▁Constraint	-12.1211
▁te	-12.1213
will	-12.1214
▁eligible	-12.1215
▁JsonArray	-12.1215
acceptLanguage	-12.1217
▁recreate	-12.1219
virtual	-12.122
AccountName	-12.1221
Targets	-12.1226
Subscribe	-12.1228
▁tweak	-12.1232
▁webservice	-12.1232
Reserved	-12.1233
Are	-12.1234
jsoup	-12.1236
▁community	-12.1237
▁MB	-12.1237
▁wr	-12.1239
spliterator	-12.1239
▁weights	-12.1239
▁extras	-12.1241
ViewGroup	-12.1241
toolbar	-12.1242
scheduler	-12.1243
Subclass	-12.1243
Temporary	-12.1244
ising	-12.1248
▁7.	-12.1249
▁widgets	-12.1249
▁projectId	-12.125
written	-12.1252
Endpoints	-12.1254
▁ImmutableMap	-12.1254
▁Libraries	-12.1256
▁hot	-12.1257
▁Stop	-12.1257
PROVIDER	-12.126
rw	-12.126
bp	-12.126
▁subtree	-12.126
logs	-12.1262
▁struts	-12.1264
▁16);	-12.1265
RA	-12.1267
▁jOOQ	-12.1267
Compatibility	-12.1268
▁DI	-12.127
singleton	-12.1271
▁Resources	-12.1272
encoder	-12.1272
▁mistakes	-12.1272
geom	-12.1274
▁Worker	-12.1276
elasticsearch	-12.1276
xhtml	-12.1277
Union	-12.1278
uni	-12.1281
(?!	-12.1283
▁BlockingQueue	-12.1285
▁checkArgument	-12.1286
<%=	-12.1287
▁fc	-12.1288
▁maintenance	-12.1289
▁proposed	-12.1289
incrementAndGet	-12.1291
▁Program	-12.1292
expect	-12.1292
mouse	-12.1292
REST	-12.1298
600	-12.1299
Mongo	-12.1299
getCanonicalName	-12.1299
std	-12.1299
▁unset	-12.13
▁slf	-12.1302
JOptionPane	-12.1303
▁Determine	-12.1304
getActive	-12.1305
▁myMethod	-12.1306
▁48	-12.1307
AFTER	-12.1307
Trade	-12.1311
ResourceInner	-12.1312
Robot	-12.1312
▁circular	-12.1315
Framework	-12.1319
▁registers	-12.132
▁continues	-12.132
getRight	-12.1322
▁comparable	-12.1323
▁Reading	-12.1323
▁creator	-12.1323
▁KeyListener	-12.1327
imageView	-12.1327
▁PostgreSQL	-12.1327
▁topics	-12.1329
▁protocols	-12.1333
▁accepting	-12.1334
▁shapes	-12.1336
▁:-	-12.1336
Skill	-12.1336
series	-12.1337
▁Shell	-12.1337
Instantiation	-12.1338
JAR	-12.134
2.4	-12.134
▁composed	-12.1342
Star	-12.1344
▁Realm	-12.1347
pipeline	-12.1347
▁routes	-12.1349
AUTH	-12.1351
Alt	-12.136
▁Getting	-12.136
requestCode	-12.136
▁cleaned	-12.1362
▁del	-12.1362
lg	-12.1363
Spaces	-12.1363
800	-12.1364
▁behaves	-12.1364
movie	-12.1364
getBounds	-12.1366
ual	-12.1367
Keyboard	-12.1368
usage	-12.1373
3:	-12.1374
▁failures	-12.1374
Bill	-12.1375
AF	-12.1375
Beta	-12.1376
▁SortedSet	-12.138
Exist	-12.138
Hot	-12.138
setStyle	-12.1381
DP	-12.1383
▁fmt	-12.1383
Green	-12.1384
ops	-12.1386
LO	-12.1387
StringUtil	-12.1387
During	-12.1387
3000	-12.1391
▁improvement	-12.1393
grant	-12.1394
▁SP	-12.1394
attributeName	-12.1394
gridy	-12.1397
▁apt	-12.1397
rgb	-12.1398
algorithm	-12.1398
camera	-12.1399
▁ConcurrentModif	-12.1399
▁prefixes	-12.1401
3));	-12.1403
▁threading	-12.1403
guess	-12.1408
Presenter	-12.141
▁Verify	-12.1412
Drawing	-12.1412
▁getData	-12.1413
▁TestNG	-12.1413
parallel	-12.1414
▁avoided	-12.1415
actor	-12.1419
▁established	-12.1422
indent	-12.1424
▁placing	-12.1426
▁"</	-12.1426
▁typeName	-12.1427
Scenario	-12.1429
unmodifiableList	-12.1431
▁Under	-12.1433
INTERVAL	-12.1434
▁GitLabApi	-12.1435
2012	-12.1436
▁concerns	-12.1437
Rating	-12.1438
grow	-12.1439
getPackageName	-12.1444
Sparse	-12.1445
del	-12.1447
Div	-12.1447
Saved	-12.1447
▁establish	-12.1448
NI	-12.1448
Leaf	-12.1451
circle	-12.1452
▁cancelled	-12.1454
▁registering	-12.1454
FromFile	-12.1455
}}	-12.1457
openqa	-12.1458
Rollback	-12.1458
syn	-12.1461
Literals	-12.1462
ann	-12.1462
4);	-12.1462
OM	-12.1464
Speech	-12.1466
192.168.	-12.1466
]*)	-12.1467
LL	-12.147
nested	-12.147
ImageButton	-12.1471
Parcel	-12.1473
▁Operator	-12.1473
FUNCTION	-12.1474
hp	-12.1475
▁readers	-12.1477
gi	-12.1479
2013	-12.1485
▁Password	-12.1486
▁demand	-12.1491
▁Ruby	-12.1492
▁pk	-12.1494
Membership	-12.1495
CONTROL	-12.1498
closeQuietly	-12.1499
live	-12.15
Sha	-12.15
▁termination	-12.1506
QName	-12.151
Lo	-12.151
trustStore	-12.1512
▁expires	-12.1515
setter	-12.1515
mt	-12.1518
▁50,	-12.1519
MyApp	-12.1519
▁radix	-12.1519
▁favorite	-12.1522
=3	-12.1525
AppCompat	-12.1525
times	-12.1527
▁Examples	-12.1531
▁SLF	-12.1532
▁overlay	-12.1533
▁checkpoint	-12.1533
▁zeros	-12.1535
getFileName	-12.1535
FieldValue	-12.1537
disabled	-12.1538
▁Case	-12.1538
ForResult	-12.1545
Le	-12.1545
▁switched	-12.1546
▁solving	-12.1547
▁friendly	-12.1548
▁nm	-12.1548
▁perm	-12.155
_8);	-12.1551
▁apiClient	-12.1551
Generate	-12.1552
TimeStamp	-12.1553
logo	-12.1555
▁finalize	-12.1557
disconnect	-12.1557
formatted	-12.1559
TypeInfo	-12.1559
Calc	-12.1566
▁EclipseLink	-12.1567
Trust	-12.1567
▁assignments	-12.157
▁URISyntax	-12.1571
▁MozuUrl	-12.1572
SocketFactory	-12.1572
▁7;	-12.1573
Lon	-12.1575
DA	-12.1576
▁byteArray	-12.1578
Bool	-12.1579
setScale	-12.158
▁JMenuItem	-12.1585
Continue	-12.1587
▁accountId	-12.1589
setLength	-12.159
recycle	-12.1591
den	-12.1592
▁inserts	-12.1595
ResponseInner	-12.1595
variant	-12.1595
Anonymous	-12.1595
NG	-12.1597
Plugins	-12.1599
MessageListener	-12.1601
▁Docker	-12.1601
▁jobId	-12.1602
Modify	-12.1602
TEMPLATE	-12.1603
unmarshal	-12.1604
longitude	-12.1604
USERNAME	-12.1606
WindowManager	-12.1607
*\	-12.1612
▁excel	-12.1614
▁challenge	-12.1616
Press	-12.1616
cred	-12.1616
▁pathname	-12.1616
payment	-12.1617
PO	-12.1618
getStyle	-12.1621
license	-12.1622
▁limitations	-12.1623
Highlight	-12.1625
editText	-12.1626
▁Converter	-12.1628
Compression	-12.1628
▁guard	-12.1629
ScrollView	-12.1633
Corner	-12.1636
▁sym	-12.1637
ard	-12.1637
▁cfg	-12.1641
sonar	-12.1644
setSelected	-12.1646
Grant	-12.1647
12,	-12.1649
intern	-12.165
71	-12.1657
▁fromIndex	-12.1658
Small	-12.1659
▁usable	-12.1664
typeName	-12.1664
aries	-12.1664
▁sides	-12.1667
TH	-12.1668
▁onSuccess	-12.1669
▁propagate	-12.1669
▁cores	-12.1669
-1.	-12.167
lng	-12.1671
fmt	-12.1672
align	-12.1672
▁foreach	-12.1673
getEntry	-12.1673
▁welcome	-12.1675
Models	-12.1676
▁credit	-12.1678
Pick	-12.1679
solr	-12.1679
Dns	-12.1685
mgr	-12.1685
▁efficiently	-12.1687
▁capability	-12.1689
▁sig	-12.1692
shop	-12.1694
Station	-12.1695
▁arc	-12.1695
Integration	-12.1696
▁myClass	-12.1697
▁Report	-12.1697
▁myMap	-12.1698
MO	-12.1701
▁Profile	-12.1701
▁Prints	-12.1702
DataModel	-12.1702
hours	-12.1703
0.6	-12.1703
7.0	-12.1703
east	-12.1705
▁sorry	-12.1707
xa	-12.1708
CheckReturnValue	-12.171
▁intersect	-12.1712
TP	-12.1713
getResultList	-12.1713
QualifiedName	-12.1714
setEntity	-12.1715
▁attempted	-12.1719
gridx	-12.1719
▁routine	-12.1719
▁sr	-12.1723
▁getItem	-12.1724
▁Conversion	-12.1725
FILL	-12.1725
▁Co	-12.1727
▁instruct	-12.1727
getB	-12.1729
{1}	-12.173
▁substitute	-12.173
iterate	-12.1734
MOVE	-12.1734
addOn	-12.1736
AlarmManager	-12.1738
Longitude	-12.1738
under	-12.174
▁rootView	-12.174
Explicit	-12.1741
known	-12.1741
5);	-12.1742
▁unmodifiable	-12.1743
sWith	-12.1746
Lang	-12.1747
▁cycles	-12.1747
▁presentation	-12.1748
Absolute	-12.1748
certificate	-12.1749
ContentResolver	-12.1749
STR	-12.1751
separated	-12.1751
▁partially	-12.1755
Promise	-12.1757
NoClassDefFound	-12.1759
▁rgb	-12.1761
=5	-12.1762
▁logback	-12.1764
Ldap	-12.1764
▁assumptions	-12.1764
getAge	-12.1765
▁iterators	-12.1768
▁hadoop	-12.1769
▁mirror	-12.1772
its	-12.1773
110	-12.1773
Fruit	-12.1775
▁dryRun	-12.1776
TRACE	-12.1777
sudo	-12.1777
Sun	-12.178
▁XSD	-12.1784
ium	-12.1785
DAYS	-12.1786
SecurityGroup	-12.1787
press	-12.1787
DataProvider	-12.1788
▁pooling	-12.1789
doFilter	-12.1791
]+"	-12.1791
PropertyValue	-12.1792
Eval	-12.1792
STATIC	-12.1792
getTimeInMillis	-12.1793
▁MQ	-12.1793
cross	-12.1793
▁nl	-12.1794
Inbound	-12.1794
addMouseListener	-12.1795
GO	-12.1796
▁Pro	-12.1796
]"	-12.1797
aws	-12.1797
▁Calculate	-12.18
▁spend	-12.18
MimeType	-12.18
Legacy	-12.1801
▁persons	-12.1801
▁portable	-12.1801
ino	-12.1802
▁pd	-12.1802
▁enc	-12.1808
getParameterType	-12.1813
REFERENCE	-12.1814
▁pools	-12.1815
Prepared	-12.1816
pixel	-12.1818
▁GsonBuilder	-12.1822
Projects	-12.1823
▁flip	-12.1823
getUsername	-12.1825
▁Ensure	-12.1826
▁reject	-12.1831
▁entityType	-12.1831
Fit	-12.1833
▁boxes	-12.1834
▁Red	-12.1835
▁Design	-12.1836
▁modal	-12.1837
("&	-12.1838
Functional	-12.1839
Gr	-12.184
▁orders	-12.1842
Abort	-12.1842
cmp	-12.1842
getAsString	-12.1843
xls	-12.1843
sess	-12.1843
[2]);	-12.1844
▁1000)	-12.1844
▁stand	-12.1844
photo	-12.1847
Hosts	-12.1848
getHeaders	-12.185
Restriction	-12.185
itr	-12.1851
MediaStore	-12.1851
missing	-12.1852
▁ByteBuf	-12.1853
Scores	-12.1854
TypeVariable	-12.1855
Invoker	-12.1855
exc	-12.1856
▁"*"	-12.1858
▁redis	-12.1858
▁GSON	-12.1859
focus	-12.1861
filtering	-12.1862
Resp	-12.1862
)->	-12.1862
▁RPC	-12.1864
▁Retrofit	-12.1865
/**"	-12.1865
▁SessionFactory	-12.1866
ctor	-12.1867
Translator	-12.1867
distinct	-12.1868
small	-12.1869
REMOVE	-12.187
SubClass	-12.187
▁magnitude	-12.1871
getRemote	-12.1872
('#	-12.1873
POINT	-12.1874
_1_	-12.1874
▁isolation	-12.1874
DIRECTORY	-12.1875
▁Essentially	-12.1875
▁timeUnit	-12.1878
▁million	-12.1879
SearchResult	-12.1881
Urls	-12.1883
SelectionModel	-12.1886
Recorder	-12.1886
ili	-12.1886
▁Methods	-12.1887
▁offline	-12.1889
EM	-12.1891
("</	-12.1891
▁requesting	-12.1893
contents	-12.1893
▁cloned	-12.1895
activate	-12.1895
Effect	-12.1896
▁techniques	-12.1897
sw	-12.19
Tracing	-12.1901
1}	-12.1905
▁PriorityQueue	-12.1909
JTable	-12.1909
▁Vaadin	-12.191
Persist	-12.1911
▁Dispatch	-12.1913
▁cn	-12.1915
SCREEN	-12.1917
Insets	-12.1918
binarySearch	-12.1918
bs	-12.1919
bool	-12.1919
▁throughout	-12.192
▁incomplete	-12.1921
Attachments	-12.1922
▁health	-12.1924
executeScript	-12.1925
▁complement	-12.1925
House	-12.1927
isNotBlank	-12.1929
Trie	-12.1931
▁endDate	-12.1932
TE	-12.1932
cassandra	-12.1934
▁choosing	-12.1934
▁"{	-12.1935
▁interceptors	-12.1938
ions	-12.194
LABEL	-12.1943
Processed	-12.1943
▁dr	-12.1946
▁ETag	-12.1947
WINDOW	-12.1947
Cont	-12.1949
mq	-12.195
jcas	-12.195
Serialize	-12.1952
▁Active	-12.1955
Participant	-12.1956
▁wall	-12.1958
Minimum	-12.196
getNodeName	-12.1961
blob	-12.1962
Io	-12.1963
Assertion	-12.1963
▁seperate	-12.1968
▁inst	-12.1969
▁da	-12.1972
▁corrected	-12.1972
PID	-12.1972
PrimaryKey	-12.1974
▁anti	-12.1976
inf	-12.1976
Expiration	-12.1976
▁controlled	-12.1977
▁fx	-12.1978
IE	-12.1979
Viewport	-12.1982
fixed	-12.1982
SA	-12.1982
▁claim	-12.1984
▁balancer	-12.1984
OVER	-12.1986
▁Unlike	-12.1986
HttpHeaders	-12.1987
_1_0	-12.1988
▁contacts	-12.1989
FileUpload	-12.1989
▁apart	-12.199
Bank	-12.1992
Graphic	-12.1993
DFS	-12.1993
▁Contact	-12.1993
▁entering	-12.1998
▁numerical	-12.2001
authorize	-12.2001
▁relations	-12.2001
qua	-12.2002
▁supertype	-12.2003
pet	-12.2003
▁httpRequest	-12.2004
KeyStroke	-12.2005
▁comboBox	-12.2007
BACK	-12.2008
▁recommendation	-12.2009
▁accesses	-12.2009
emphasis	-12.201
▁study	-12.201
▁UserDetails	-12.2011
▁Help	-12.2013
|\	-12.2013
▁doubles	-12.2017
▁avg	-12.2019
Salary	-12.2019
ij	-12.2019
▁proposal	-12.2021
▁Term	-12.2022
Maker	-12.2023
▁descending	-12.2024
built	-12.2025
▁Icon	-12.2025
fo	-12.2025
▁attack	-12.2028
Seed	-12.203
ifPresent	-12.2031
▁decrement	-12.2033
Needed	-12.2034
sent	-12.204
Inside	-12.2043
Excel	-12.2046
32.	-12.2047
▁feedback	-12.2048
Encrypt	-12.2053
patch	-12.2053
▁roughly	-12.2058
][0]	-12.206
templates	-12.2061
Quality	-12.2061
tagName	-12.2063
▁everytime	-12.2065
Make	-12.2065
Wrapped	-12.2066
DIS	-12.2066
1))	-12.2067
▁deploying	-12.2068
▁IF	-12.2069
("\"	-12.2069
▁Indeed	-12.207
▁rep	-12.2071
▁Switch	-12.2071
▁fixing	-12.2072
Replica	-12.2074
FI	-12.2074
▁Drawable	-12.2076
▁Toolkit	-12.2077
▁leaks	-12.2077
xy	-12.2078
▁JNA	-12.208
▁fo	-12.208
JPA	-12.2081
▁20;	-12.2085
▁Threads	-12.2086
toSet	-12.2086
▁FacesContext	-12.2087
graphic	-12.2087
▁Cannot	-12.2087
▁granted	-12.2088
0.4	-12.2092
▁abort	-12.2092
Another	-12.2092
netty	-12.2093
ServiceName	-12.2094
isation	-12.2094
Indent	-12.2095
▁cm	-12.2095
RF	-12.2096
DialogInterface	-12.2099
▁si	-12.2102
ModelImpl	-12.2103
oriented	-12.2104
SW	-12.2105
▁Linked	-12.2105
ET	-12.2106
▁waitFor	-12.2106
▁SVN	-12.2112
GREEN	-12.2112
CONSTANT	-12.2112
getChildNodes	-12.2113
▁aux	-12.2113
Odd	-12.2117
placeholder	-12.2117
ku	-12.212
▁Required	-12.212
▁[0,	-12.2121
▁bracket	-12.2122
MODULE	-12.2129
▁resolving	-12.2129
▁DLL	-12.2129
Verifier	-12.2129
▁placeholders	-12.213
▁presented	-12.2131
▁trees	-12.2131
▁detached	-12.2133
LastModified	-12.2133
GI	-12.2134
3.4	-12.2134
▁TreeNode	-12.2135
moveTo	-12.2135
CommandLine	-12.2136
▁inconsistent	-12.2137
InstanceGroup	-12.2138
anchor	-12.214
applet	-12.214
ResourceType	-12.214
Processors	-12.2144
bulk	-12.2144
Guard	-12.2146
234	-12.215
strip	-12.215
bu	-12.215
▁variants	-12.2151
▁Explorer	-12.2153
OL	-12.2153
▁dialect	-12.2155
TextArea	-12.2156
ceil	-12.2156
Distributed	-12.2157
4.5	-12.2158
setWidth	-12.216
special	-12.216
▁querying	-12.2161
▁Working	-12.2164
fit	-12.2164
▁Current	-12.2164
▁ignores	-12.2168
WAS	-12.2168
could	-12.2169
▁Upload	-12.217
▁intention	-12.2171
OO	-12.2171
▁ne	-12.2172
cacerts	-12.2172
wrapped	-12.2173
▁decent	-12.2174
ht	-12.2175
Secondary	-12.2175
▁complain	-12.2177
locations	-12.2178
duplicate	-12.2178
setFill	-12.2179
▁jackson	-12.2181
▁initiate	-12.2182
DeclaredMethod	-12.2183
Unsafe	-12.2183
Serialized	-12.2185
Pid	-12.2185
▁synchronous	-12.2188
neighbour	-12.219
▁65	-12.219
hbase	-12.2193
▁conflicts	-12.2193
▁forces	-12.2195
TF	-12.2196
gg	-12.2196
▁Gdx	-12.2199
Tcp	-12.2199
▁Processing	-12.22
▁Js	-12.2201
Sibling	-12.2204
PopupMenu	-12.2204
▁Category	-12.2205
MODEL	-12.2206
▁lazily	-12.2207
+"\	-12.2208
Offer	-12.2209
▁bash	-12.2211
getLog	-12.2211
▁Registers	-12.2211
▁bd	-12.2213
SEQUENCE	-12.2215
▁parenthesis	-12.2215
NotEmpty	-12.2218
erry	-12.2218
▁Role	-12.2225
EXISTS	-12.2225
////////////////	-12.2232
▁expert	-12.2233
MBeanServer	-12.2233
Requires	-12.2235
pause	-12.2235
Pad	-12.2236
▁shortest	-12.2236
▁subnet	-12.2237
dic	-12.2237
WHERE	-12.2238
Slider	-12.2239
▁CmsUUID	-12.2239
ane	-12.224
▁Primitive	-12.224
▁Ubuntu	-12.2244
▁CMS	-12.2245
rn	-12.2246
Billing	-12.2247
classLoader	-12.225
les	-12.225
Incorrect	-12.2252
UnknownHost	-12.2252
rib	-12.2252
square	-12.2254
Sorter	-12.2255
Logical	-12.2256
▁icons	-12.2257
Stored	-12.2257
Converters	-12.2258
GT	-12.2259
Ascii	-12.2259
hdfs	-12.2259
▁orderId	-12.2261
▁rv	-12.2262
Inf	-12.2263
▁EMPTY	-12.2263
BorderFactory	-12.2263
Positions	-12.2263
audit	-12.2264
▁Throws	-12.2265
declared	-12.2265
pg	-12.2267
▁syntactic	-12.2267
▁editable	-12.2268
▁JMeter	-12.2269
du	-12.2269
▁getOrCreate	-12.2269
aspectj	-12.227
pub	-12.2272
setting	-12.2272
▁2015	-12.2273
TreeItem	-12.2274
resolver	-12.2275
Fl	-12.2276
▁Imagine	-12.2276
America	-12.2276
▁8:	-12.228
▁satisfied	-12.2281
Ro	-12.2281
▁NaN	-12.2281
columnIndex	-12.2281
Embeddable	-12.2285
HALF	-12.2285
▁inform	-12.2287
▁Region	-12.2288
▁MyService	-12.2289
Pi	-12.2289
CATALINA	-12.2294
▁camel	-12.2294
▁traditional	-12.2294
▁27	-12.2294
Streaming	-12.2295
▁columnIndex	-12.2296
openjdk	-12.2296
Compressed	-12.2296
getter	-12.2296
Market	-12.2297
▁markup	-12.23
Deferred	-12.2311
81	-12.2312
fis	-12.2313
##	-12.2314
▁Auth	-12.2314
javafx	-12.2315
WHEN	-12.232
▁purchase	-12.2322
="0"	-12.2323
FA	-12.2326
▁curl	-12.2326
mongo	-12.2326
*2	-12.2326
▁periodically	-12.2329
1.8	-12.233
ties	-12.233
Footer	-12.2331
otherwise	-12.2333
PR	-12.2334
▁symmetric	-12.2334
manage	-12.2335
▁trade	-12.2336
svg	-12.2338
MILLIS	-12.2338
---------------	-12.234
solution	-12.2342
▁increased	-12.2344
▁hm	-12.2344
AccessControl	-12.2345
ied	-12.2346
[4];	-12.2346
▁Private	-12.2346
▁addresources	-12.2347
startIndex	-12.2348
setX	-12.235
▁violation	-12.2351
▁Visual	-12.2351
Students	-12.2352
CellRenderer	-12.2352
▁createOrUpdate	-12.2356
har	-12.2357
COM	-12.2358
▁'-'	-12.2358
CN	-12.2358
DatePicker	-12.2359
getIcon	-12.236
▁differs	-12.2366
▁nb	-12.2368
BufferSize	-12.237
setImage	-12.2374
▁Push	-12.2374
▁incrementing	-12.2375
Drive	-12.2377
▁wonder	-12.2378
▁Lets	-12.2379
▁assertions	-12.2379
getEncoded	-12.2379
Traversal	-12.2381
▁Condition	-12.2381
Listing	-12.2381
Unsigned	-12.2382
equalTo	-12.2385
ReturnType	-12.2386
errorOn	-12.2388
Atoms	-12.2389
sentence	-12.239
problem	-12.239
HealthCheck	-12.2394
roles	-12.2397
▁updateresources	-12.2397
keyword	-12.2399
▁ternary	-12.2399
lot	-12.2399
▁Calculates	-12.24
▁5000	-12.2403
▁taglib	-12.2404
RM	-12.2404
▁GAE	-12.2408
▁sep	-12.2409
Outbound	-12.2412
handlers	-12.2412
cost	-12.2414
VARIABLE	-12.2416
▁recording	-12.2418
15.1	-12.2419
PatternLayout	-12.242
Under	-12.2421
▁li	-12.2423
▁band	-12.2426
BackgroundColor	-12.2426
▁CommandLine	-12.2426
▁flatMap	-12.2428
0.7	-12.243
front	-12.243
1).	-12.2431
SEND	-12.2434
proguard	-12.2434
facesContext	-12.2435
▁29	-12.2435
▁RGB	-12.2438
Txt	-12.2438
toPath	-12.244
getFont	-12.2442
SECURITY	-12.2443
▁hiding	-12.2443
▁outdated	-12.2443
getUri	-12.2443
findById	-12.2443
ooKeeper	-12.2445
readResource	-12.2445
▁weeks	-12.2446
▁Shared	-12.2446
getValues	-12.2449
▁counters	-12.2451
yo	-12.2451
▁bottleneck	-12.2452
▁charge	-12.2452
▁codebase	-12.2453
▁accuracy	-12.2454
cascade	-12.2459
BOOLEAN	-12.2461
Inheritance	-12.2461
Gravity	-12.2461
-7	-12.2462
▁boxing	-12.2462
jb	-12.2463
OU	-12.2463
\",	-12.2467
▁parses	-12.2467
▁Quartz	-12.2468
Communication	-12.2469
Dependent	-12.247
ect	-12.247
HSSF	-12.2471
Assembly	-12.2471
setTag	-12.2472
une	-12.2472
Typeface	-12.2474
▁fw	-12.2474
dispatch	-12.2474
Even	-12.2476
pan	-12.2479
const	-12.248
▁showed	-12.2482
Training	-12.2482
UserDetails	-12.2484
Cover	-12.2484
▁"_"	-12.2489
▁InvalidArgument	-12.249
Rev	-12.2491
Painter	-12.2492
ObjectType	-12.2492
▁ArrayIndexOutOf	-12.2493
▁MUST	-12.2494
▁IAM	-12.2495
computeIfAbsent	-12.2496
▁IV	-12.2497
getenv	-12.2498
▁inventory	-12.2498
11,	-12.2498
ail	-12.2499
Slide	-12.2499
▁Concurrency	-12.2499
REF	-12.2501
▁lo	-12.2502
Blank	-12.2504
motion	-12.2504
van	-12.2504
Dispatch	-12.2505
▁Expected	-12.2507
EMAIL	-12.2507
tracker	-12.2507
▁wave	-12.2509
CmsContainer	-12.251
▁onComplete	-12.2511
▁busy	-12.2512
MC	-12.2516
ough	-12.2516
▁URLEncoder	-12.2519
Latitude	-12.252
resourceName	-12.2521
None	-12.2523
▁unregister	-12.2524
addColumn	-12.2524
getFrom	-12.2524
startTime	-12.2525
getTextContent	-12.2526
▁Tool	-12.2527
▁serious	-12.253
Magic	-12.2535
▁MyInterface	-12.2536
▁population	-12.2538
▁#3	-12.2538
▁classic	-12.2539
Lu	-12.2539
STYLE	-12.2541
▁datetime	-12.2542
dict	-12.2542
2.3	-12.2543
2.7	-12.2545
HelloWorld	-12.2546
3.1	-12.2547
LAYOUT	-12.255
BEAN	-12.255
Testing	-12.255
SCRIPT	-12.2551
▁<%	-12.2555
▁similarly	-12.2556
▁lightweight	-12.2559
lf	-12.2561
Sending	-12.2561
into	-12.2561
collections	-12.2562
▁compose	-12.2562
gp	-12.2562
iation	-12.2562
minutes	-12.2563
▁ssh	-12.2563
rev	-12.2566
addNew	-12.2567
appId	-12.2567
Naming	-12.2567
IGNORE	-12.2567
soft	-12.2568
unused	-12.2569
▁norm	-12.2569
QR	-12.2571
FirebaseDatabase	-12.2573
▁newNode	-12.2573
▁factories	-12.2575
Sorting	-12.2575
▁underscore	-12.2575
getNew	-12.2576
fer	-12.2578
▁3]	-12.2579
BR	-12.2581
▁goto	-12.2581
Things	-12.2581
JsonNode	-12.2582
▁shuffle	-12.2583
▁Ad	-12.2585
▁requiring	-12.2585
setField	-12.2589
detect	-12.2592
▁sites	-12.2594
▁tp	-12.2595
5000	-12.2596
ThreadFactory	-12.2598
Ordering	-12.2598
ql	-12.2598
▁-----	-12.2599
Pull	-12.26
TAB	-12.26
Scoped	-12.26
DeclaringClass	-12.2603
JMS	-12.2607
▁extracting	-12.261
▁vi	-12.2611
ManyToMany	-12.2612
onClick	-12.2614
▁repeating	-12.2615
GenericType	-12.2616
ND	-12.2616
Mon	-12.2616
White	-12.2617
hm	-12.2617
▁temporal	-12.2618
▁Writable	-12.2619
▁2.3	-12.2619
JP	-12.2619
127.0.0.1	-12.262
Tester	-12.2621
ToRemove	-12.2621
▁ImmutableSet	-12.2625
chrome	-12.2627
arc	-12.2627
setPassword	-12.2627
wicket	-12.263
8601	-12.2632
HashCode	-12.2634
▁uninstall	-12.2635
▁wildcards	-12.2636
Advice	-12.2638
Interaction	-12.2642
▁OOP	-12.2643
Concurrent	-12.2644
%3	-12.2646
▁trial	-12.2648
▁accidentally	-12.2649
▁customers	-12.265
▁regexp	-12.2652
▁parallelism	-12.2653
▁'1'	-12.2654
getContainer	-12.2654
quit	-12.2654
▁foreground	-12.2656
▁CmsObject	-12.2659
javadoc	-12.266
MessageConverter	-12.266
▁InternalXbase	-12.2663
CU	-12.2664
120	-12.2665
▁2-	-12.2665
SomeClass	-12.2665
getMetaData	-12.2666
▁manages	-12.2667
▁dangerous	-12.2667
▁getCurrent	-12.2667
Foreground	-12.2668
RequestHandler	-12.2668
------------	-12.2669
▁Domain	-12.267
features	-12.2671
▁parents	-12.2673
Bob	-12.2673
▁serves	-12.2673
sessionId	-12.2674
eu	-12.2674
reason	-12.2675
▁exceed	-12.2676
integration	-12.2677
getExtension	-12.2678
▁renamed	-12.2679
Exporter	-12.2679
tex	-12.268
▁lifetime	-12.2682
TC	-12.2683
▁concise	-12.2685
[1024];	-12.2685
▁bufferSize	-12.2687
▁VARCHAR	-12.2687
getFeature	-12.2687
getTimestamp	-12.2687
dependent	-12.2688
▁macro	-12.2688
cess	-12.2688
Skin	-12.2689
▁affects	-12.2689
▁iterates	-12.2691
Mac	-12.2692
doclet	-12.2693
mycompany	-12.2694
▁JR	-12.2694
onError	-12.2697
docs	-12.2697
nums	-12.2699
▁JsonElement	-12.2703
antMatchers	-12.2703
getCollection	-12.2705
cust	-12.271
▁sa	-12.2711
Mention	-12.2712
▁needing	-12.2713
▁bufferedReader	-12.2714
ast	-12.2716
0:	-12.2717
rain	-12.2718
Atomic	-12.2721
▁determining	-12.2721
getLine	-12.2722
▁neighbor	-12.2723
▁Constructs	-12.2723
▁keyStore	-12.2724
Align	-12.2725
▁klass	-12.2726
▁descriptors	-12.2726
ura	-12.2726
NoSuch	-12.2729
Err	-12.2729
▁Admin	-12.273
▁Assume	-12.273
▁&=	-12.273
1),	-12.2734
transformer	-12.2734
Apple	-12.2734
▁GVR	-12.2735
▁0000	-12.2735
sResult	-12.2735
Bot	-12.2736
Individual	-12.2739
proto	-12.2739
▁vehicle	-12.2742
▁getResource	-12.2743
invalidate	-12.2746
CONFIGURATION	-12.2748
▁statusCode	-12.275
paste	-12.275
▁Performance	-12.2751
{0}	-12.2751
ute	-12.2751
Parallel	-12.2753
SR	-12.2756
PP	-12.2756
Dec	-12.2757
CONSTRAINT	-12.2757
DataBuffer	-12.2758
▁checkout	-12.276
gy	-12.2764
Related	-12.2764
Buffered	-12.2765
▁spawn	-12.2766
getMetadata	-12.2766
GE	-12.277
xlsx	-12.2774
mac	-12.2775
FAIL	-12.2775
▁react	-12.2775
firefox	-12.2776
▁authority	-12.2777
###	-12.2777
ow	-12.2777
NAMESPACE	-12.2778
▁inferred	-12.2779
got	-12.278
▁mContext	-12.278
getApi	-12.2782
rdf	-12.2783
▁ClassA	-12.2784
OperationStatus	-12.2784
encrypted	-12.2787
they	-12.2787
▁bounded	-12.2787
"});	-12.2788
ivy	-12.2789
Best	-12.279
Rich	-12.2793
}).	-12.2794
CriteriaBuilder	-12.2794
▁HttpHeaders	-12.2795
setImageResource	-12.2796
HttpSession	-12.2796
advance	-12.2798
▁Works	-12.2798
Servers	-12.2799
▁barrier	-12.2799
▁getObject	-12.28
▁pushed	-12.2802
members	-12.2802
sel	-12.2803
seed	-12.2804
tuple	-12.2808
Four	-12.281
cannot	-12.2811
▁buffering	-12.2812
▁Edition	-12.2812
realm	-12.2813
▁Actions	-12.2816
Mobile	-12.2819
-8859-1	-12.282
uf	-12.282
▁truly	-12.2821
▁producing	-12.2822
getEvent	-12.2825
spot	-12.2826
▁UnsupportedE	-12.2826
oneOffset	-12.2826
▁verb	-12.2828
▁Release	-12.2829
Cols	-12.283
Repositories	-12.2831
REPLACE	-12.2831
▁idiom	-12.2833
Bo	-12.2835
+\\	-12.2835
isAnnotation	-12.2837
ico	-12.2838
▁ActiveMQ	-12.2839
▁technologies	-12.284
ged	-12.284
▁notifies	-12.284
CacheKey	-12.2841
())))	-12.2841
▁expire	-12.2842
PG	-12.2843
getReturnType	-12.2843
%\	-12.2843
▁CLI	-12.2844
▁inv	-12.2846
stuff	-12.2846
("--	-12.2847
camel	-12.2847
▁structured	-12.2848
Purchase	-12.2848
▁altogether	-12.2849
▁DataType	-12.2849
▁Preference	-12.2852
hasNextInt	-12.2853
FileStatus	-12.2854
▁disappear	-12.2854
▁maintaining	-12.2854
▁Axis	-12.2854
saved	-12.2859
IV	-12.286
='"	-12.286
tweet	-12.286
xid	-12.2862
mypackage	-12.2867
Ack	-12.2867
▁CREATE	-12.2868
EntryPoint	-12.287
▁hh	-12.287
classifier	-12.287
Stamp	-12.2871
▁5:	-12.2872
/1.1	-12.2872
INSENSITIVE	-12.2877
▁Choose	-12.2878
delimiter	-12.2879
▁launching	-12.288
Additional	-12.288
▁MIME	-12.2883
▁Compile	-12.2884
125	-12.2885
▁SSH	-12.2886
▁Team	-12.2886
▁StreamResult	-12.2886
createNew	-12.2888
Aliases	-12.289
getList	-12.289
pref	-12.289
tro	-12.2891
linked	-12.2891
2){	-12.2893
PropertyName	-12.2893
Monitoring	-12.2894
▁groupName	-12.2894
myList	-12.2894
Spot	-12.2897
▁waste	-12.29
▁encounters	-12.2901
▁#{	-12.2904
received	-12.2904
LogRecord	-12.2904
listIterator	-12.2906
▁encapsulation	-12.2909
middle	-12.291
mobile	-12.2911
setState	-12.2913
ification	-12.2914
FAILURE	-12.2914
▁Elastic	-12.2914
▁trimmed	-12.2915
▁hang	-12.2918
DBID	-12.2918
sendRedirect	-12.292
both	-12.2922
compiled	-12.2923
VERTICAL	-12.2923
▁conclusion	-12.2923
ToAdd	-12.2923
Once	-12.2924
health	-12.2924
Warnings	-12.2926
▁ALL	-12.2926
Interest	-12.2932
Vertices	-12.2932
▁listBy	-12.2933
▁identifying	-12.2933
▁dup	-12.2933
▁{};	-12.2936
▁nearly	-12.2936
▁tied	-12.2937
sFrom	-12.2938
▁JPQL	-12.2942
getExtras	-12.2942
fi	-12.2944
KeyPair	-12.2945
▁triple	-12.2946
(200,	-12.2946
kam	-12.2949
▁truncate	-12.2951
▁him	-12.2951
far	-12.2952
misc	-12.2952
▁ar	-12.2952
isNaN	-12.2954
JavaClass	-12.2955
▁namely	-12.2957
train	-12.2958
openSession	-12.2959
▁ft	-12.2959
▁Completable	-12.296
▁overwriting	-12.2962
Poll	-12.2963
LocalService	-12.2963
SessionId	-12.2968
0000000000000000	-12.2968
▁Hi	-12.297
▁None	-12.297
▁Jan	-12.297
products	-12.2971
modify	-12.2971
currency	-12.2971
▁Transform	-12.2972
CMD	-12.2972
▁logout	-12.2973
flight	-12.2973
▁fewer	-12.2975
▁movement	-12.2975
▁LIKE	-12.2975
▁extractor	-12.2976
▁extent	-12.2976
▁enterprise	-12.2977
▁AttributeSet	-12.2977
▁Chart	-12.2978
▁temporarily	-12.2979
maximum	-12.2981
▁INTEGER	-12.2981
▁Screen	-12.2982
JSType	-12.2982
bmp	-12.2984
_2_	-12.2984
Jedis	-12.2988
ALWAYS	-12.2988
Para	-12.2989
Stroke	-12.299
Ind	-12.299
gu	-12.2992
GS	-12.2993
office	-12.2994
▁brand	-12.2994
disk	-12.2999
Helpers	-12.3
Tier	-12.3002
▁stackoverflow	-12.3002
▁shipping	-12.3004
logical	-12.3005
Cas	-12.3005
▁hashing	-12.3009
▁11:	-12.301
900	-12.3011
cycle	-12.3011
bond	-12.3013
ki	-12.3013
▁St	-12.3016
▁stamp	-12.3017
▁onItemClick	-12.3019
▁Netty	-12.3019
addTo	-12.3021
▁unlike	-12.3023
LF	-12.3024
Semantic	-12.3026
Conflict	-12.3026
▁infrastructure	-12.3026
pathTo	-12.3027
Identifiers	-12.3029
▁increases	-12.3029
apt	-12.303
[...]
